node {
  name: "global_step/Initializer/zeros"
  op: "Const"
  attr {
    key: "_class"
    value {
      list {
        s: "loc:@global_step"
      }
    }
  }
  attr {
    key: "_output_shapes"
    value {
      list {
        shape {
        }
      }
    }
  }
  attr {
    key: "dtype"
    value {
      type: DT_INT64
    }
  }
  attr {
    key: "value"
    value {
      tensor {
        dtype: DT_INT64
        tensor_shape {
        }
        int64_val: 0
      }
    }
  }
}
node {
  name: "global_step"
  op: "VarHandleOp"
  attr {
    key: "_class"
    value {
      list {
        s: "loc:@global_step"
      }
    }
  }
  attr {
    key: "_output_shapes"
    value {
      list {
        shape {
        }
      }
    }
  }
  attr {
    key: "allowed_devices"
    value {
      list {
      }
    }
  }
  attr {
    key: "container"
    value {
      s: ""
    }
  }
  attr {
    key: "dtype"
    value {
      type: DT_INT64
    }
  }
  attr {
    key: "shape"
    value {
      shape {
      }
    }
  }
  attr {
    key: "shared_name"
    value {
      s: "global_step"
    }
  }
}
node {
  name: "global_step/IsInitialized/VarIsInitializedOp"
  op: "VarIsInitializedOp"
  input: "global_step"
  attr {
    key: "_output_shapes"
    value {
      list {
        shape {
        }
      }
    }
  }
}
node {
  name: "global_step/Assign"
  op: "AssignVariableOp"
  input: "global_step"
  input: "global_step/Initializer/zeros"
  attr {
    key: "_has_manual_control_dependencies"
    value {
      b: true
    }
  }
  attr {
    key: "dtype"
    value {
      type: DT_INT64
    }
  }
  attr {
    key: "validate_shape"
    value {
      b: false
    }
  }
}
node {
  name: "global_step/Read/ReadVariableOp"
  op: "ReadVariableOp"
  input: "global_step"
  attr {
    key: "_output_shapes"
    value {
      list {
        shape {
        }
      }
    }
  }
  attr {
    key: "dtype"
    value {
      type: DT_INT64
    }
  }
}
node {
  name: "global_step/VarIsInitializedOp"
  op: "VarIsInitializedOp"
  input: "global_step"
  attr {
    key: "_output_shapes"
    value {
      list {
        shape {
        }
      }
    }
  }
}
node {
  name: "global_step/cond"
  op: "If"
  input: "global_step/VarIsInitializedOp"
  input: "global_step"
  input: "global_step/Initializer/zeros"
  attr {
    key: "Tcond"
    value {
      type: DT_BOOL
    }
  }
  attr {
    key: "Tin"
    value {
      list {
        type: DT_RESOURCE
        type: DT_INT64
      }
    }
  }
  attr {
    key: "Tout"
    value {
      list {
        type: DT_INT64
      }
    }
  }
  attr {
    key: "_lower_using_switch_merge"
    value {
      b: true
    }
  }
  attr {
    key: "_output_shapes"
    value {
      list {
        shape {
        }
      }
    }
  }
  attr {
    key: "_read_only_resource_inputs"
    value {
      list {
        i: 1
      }
    }
  }
  attr {
    key: "else_branch"
    value {
      func {
        name: "global_step_cond_false_108"
      }
    }
  }
  attr {
    key: "output_shapes"
    value {
      list {
        shape {
        }
      }
    }
  }
  attr {
    key: "then_branch"
    value {
      func {
        name: "global_step_cond_true_107"
      }
    }
  }
}
node {
  name: "global_step/cond/Identity"
  op: "Identity"
  input: "global_step/cond"
  attr {
    key: "T"
    value {
      type: DT_INT64
    }
  }
  attr {
    key: "_output_shapes"
    value {
      list {
        shape {
        }
      }
    }
  }
}
node {
  name: "global_step/add/y"
  op: "Const"
  attr {
    key: "_output_shapes"
    value {
      list {
        shape {
        }
      }
    }
  }
  attr {
    key: "dtype"
    value {
      type: DT_INT64
    }
  }
  attr {
    key: "value"
    value {
      tensor {
        dtype: DT_INT64
        tensor_shape {
        }
        int64_val: 0
      }
    }
  }
}
node {
  name: "global_step/add"
  op: "AddV2"
  input: "global_step/cond/Identity"
  input: "global_step/add/y"
  attr {
    key: "T"
    value {
      type: DT_INT64
    }
  }
  attr {
    key: "_output_shapes"
    value {
      list {
        shape {
        }
      }
    }
  }
}
node {
  name: "normalize_element/component_0"
  op: "Const"
  device: "/device:CPU:0"
  attr {
    key: "_output_shapes"
    value {
      list {
        shape {
          dim {
            size: 537
          }
        }
      }
    }
  }
  attr {
    key: "dtype"
    value {
      type: DT_DOUBLE
    }
  }
  attr {
    key: "value"
    value {
      tensor {
        dtype: DT_DOUBLE
        tensor_shape {
          dim {
            size: 537
          }
        }
        tensor_content: "\021\021\021\021\021\021\221?\336\335\335\335\335\335\275?\232\231\231\231\231\231\251?\336\335\335\335\335\335\275?\232\231\231\231\231\231\311?\021\021\021\021\021\021\261?\"\"\"\"\"\"\342?333333\303?\021\021\021\021\021\021\261?\000\000\000\000\000\000\000\000\021\021\021\021\021\021\221?333333\323?\021\021\021\021\021\021\241?\336\335\335\335\335\335\275?\"\"\"\"\"\"\322?UUUUUU\265?UUUUUU\265?\274\273\273\273\273\273\343?\021\021\021\021\021\021\221?wwwwww\327?\000\000\000\000\000\000\000\000UUUUUU\325?\021\021\021\021\021\021\241?\274\273\273\273\273\273\313?UUUUUU\345?\021\021\021\021\021\021\321?\274\273\273\273\273\273\333?333333\323?\000\000\000\000\000\000\000\000\021\021\021\021\021\021\221?\021\021\021\021\021\021\321?ffffff\326?\000\000\000\000\000\000\000\000\211\210\210\210\210\210\330?\000\000\000\000\000\000\000\000\274\273\273\273\273\273\313?\021\021\021\021\021\021\221?\021\021\021\021\021\021\221?UUUUUU\305?UUUUUU\305?\232\231\231\231\231\231\271?333333\323?\357\356\356\356\356\356\336?ffffff\326?\232\231\231\231\231\231\251?\232\231\231\231\231\231\251?\021\021\021\021\021\021\321?UUUUUU\305?\000\000\000\000\000\000\000\000\021\021\021\021\021\021\221?\336\335\335\335\335\335\315?\274\273\273\273\273\273\313?\232\231\231\231\231\231\341?\315\314\314\314\314\314\334?\274\273\273\273\273\273\313?UUUUUU\305?\"\"\"\"\"\"\352?\021\021\021\021\021\021\221?\274\273\273\273\273\273\333?\336\335\335\335\335\335\275?UUUUUU\325?UUUUUU\265?\021\021\021\021\021\021\301?wwwwww\307?\021\021\021\021\021\021\261?333333\303?UUUUUU\325?wwwwww\307?333333\323?333333\303?\274\273\273\273\273\273\343?\021\021\021\021\021\021\301?\000\000\000\000\000\000\000\000\336\335\335\335\335\335\275?\021\021\021\021\021\021\261?\021\021\021\021\021\021\221?333333\353?\021\021\021\021\021\021\261?\232\231\231\231\231\231\341?\021\021\021\021\021\021\241?UUUUUU\325?\000\000\000\000\000\000\350?\000\000\000\000\000\000\000\000\336\335\335\335\335\335\275?\021\021\021\021\021\021\261?\000\000\000\000\000\000\320?\232\231\231\231\231\231\271?\232\231\231\231\231\231\271?\000\000\000\000\000\000\000\000\315\314\314\314\314\314\344?\232\231\231\231\231\231\331?UUUUUU\325?UUUUUU\265?\211\210\210\210\210\210\340?DDDDDD\324?\000\000\000\000\000\000\000\000333333\303?\021\021\021\021\021\021\241?\021\021\021\021\021\021\221?\000\000\000\000\000\000\000\000\021\021\021\021\021\021\241?\021\021\021\021\021\021\261?wwwwww\327?UUUUUU\305?\000\000\000\000\000\000\000\000\000\000\000\000\000\000\340?wwwwww\327?\021\021\021\021\021\021\221?\021\021\021\021\021\021\261?UUUUUU\265?\021\021\021\021\021\021\221?\232\231\231\231\231\231\311?wwwwww\307?\357\356\356\356\356\356\336?\000\000\000\000\000\000\350?\021\021\021\021\021\021\221?\274\273\273\273\273\273\333?\000\000\000\000\000\000\320?333333\343?333333\303?\"\"\"\"\"\"\322?UUUUUU\305?\021\021\021\021\021\021\321?\336\335\335\335\335\335\275?UUUUUU\305?\211\210\210\210\210\210\340?\336\335\335\335\335\335\275?\021\021\021\021\021\021\221?\021\021\021\021\021\021\241?ffffff\346?\"\"\"\"\"\"\322?UUUUUU\305?DDDDDD\324?\000\000\000\000\000\000\000\000\021\021\021\021\021\021\241?\000\000\000\000\000\000\000\000UUUUUU\325?UUUUUU\265?\021\021\021\021\021\021\301?\021\021\021\021\021\021\321?\000\000\000\000\000\000\000\000\021\021\021\021\021\021\221?\232\231\231\231\231\231\271?\021\021\021\021\021\021\301?\021\021\021\021\021\021\241?333333\303?\021\021\021\021\021\021\321?\021\021\021\021\021\021\221?\000\000\000\000\000\000\320?DDDDDD\324?\232\231\231\231\231\231\311?\021\021\021\021\021\021\261?\253\252\252\252\252\252\332?\021\021\021\021\021\021\221?\000\000\000\000\000\000\000\000\021\021\021\021\021\021\321?\021\021\021\021\021\021\321?\021\021\021\021\021\021\261?333333\303?ffffff\326?\021\021\021\021\021\021\221?\021\021\021\021\021\021\241?\000\000\000\000\000\000\320?\232\231\231\231\231\231\331?UUUUUU\325?\021\021\021\021\021\021\351?\000\000\000\000\000\000\350?UUUUUU\325?\211\210\210\210\210\210\340?\021\021\021\021\021\021\261?\021\021\021\021\021\021\261?\232\231\231\231\231\231\251?\021\021\021\021\021\021\241?\021\021\021\021\021\021\221?\232\231\231\231\231\231\331?\"\"\"\"\"\"\322?\021\021\021\021\021\021\261?\232\231\231\231\231\231\331?UUUUUU\305?wwwwww\307?\021\021\021\021\021\021\261?\000\000\000\000\000\000\000\000\232\231\231\231\231\231\271?ffffff\326?\274\273\273\273\273\273\313?333333\343?\021\021\021\021\021\021\261?333333\323?\021\021\021\021\021\021\301?\000\000\000\000\000\000\000\000UUUUUU\325?\336\335\335\335\335\335\315?\021\021\021\021\021\021\301?\232\231\231\231\231\231\271?\000\000\000\000\000\000\000\000\336\335\335\335\335\335\335?\253\252\252\252\252\252\332?\232\231\231\231\231\231\251?\021\021\021\021\021\021\221?\232\231\231\231\231\231\251?DDDDDD\324?\232\231\231\231\231\231\331?wwwwww\327?333333\303?wwwwww\307?\000\000\000\000\000\000\320?\021\021\021\021\021\021\241?\021\021\021\021\021\021\301?\021\021\021\021\021\021\261?\336\335\335\335\335\335\335?\021\021\021\021\021\021\241?\021\021\021\021\021\021\301?\021\021\021\021\021\021\241?UUUUUU\305?\232\231\231\231\231\231\251?\021\021\021\021\021\021\321?\336\335\335\335\335\335\275?UUUUUU\305?\232\231\231\231\231\231\331?\000\000\000\000\000\000\320?\000\000\000\000\000\000\000\000\000\000\000\000\000\000\340?\232\231\231\231\231\231\331?ffffff\326?\000\000\000\000\000\000\000\000UUUUUU\345?\232\231\231\231\231\231\251?\021\021\021\021\021\021\261?\000\000\000\000\000\000\000\000wwwwww\307?\021\021\021\021\021\021\261?\000\000\000\000\000\000\000\000\232\231\231\231\231\231\311?\232\231\231\231\231\231\331?\211\210\210\210\210\210\350?\021\021\021\021\021\021\221?UUUUUU\265?333333\303?UUUUUU\265?\021\021\021\021\021\021\261?333333\323?\211\210\210\210\210\210\340?\021\021\021\021\021\021\301?UUUUUU\305?UUUUUU\305?\232\231\231\231\231\231\331?\232\231\231\231\231\231\271?\000\000\000\000\000\000\000\000\336\335\335\335\335\335\275?\021\021\021\021\021\021\261?333333\303?\232\231\231\231\231\231\271?\336\335\335\335\335\335\315?UUUUUU\265?\232\231\231\231\231\231\331?\274\273\273\273\273\273\333?\232\231\231\231\231\231\251?\000\000\000\000\000\000\340?\336\335\335\335\335\335\275?\021\021\021\021\021\021\221?wwwwww\327?\021\021\021\021\021\021\261?ffffff\346?\336\335\335\335\335\335\275?\021\021\021\021\021\021\221?333333\303?\232\231\231\231\231\231\251?\253\252\252\252\252\252\332?\021\021\021\021\021\021\241?\021\021\021\021\021\021\241?\000\000\000\000\000\000\000\000\336\335\335\335\335\335\275?\232\231\231\231\231\231\271?\021\021\021\021\021\021\261?\232\231\231\231\231\231\251?\315\314\314\314\314\314\334?\000\000\000\000\000\000\320?\021\021\021\021\021\021\261?\021\021\021\021\021\021\241?\000\000\000\000\000\000\000\000ffffff\326?UUUUUU\325?\232\231\231\231\231\231\251?UUUUUU\325?\021\021\021\021\021\021\221?\000\000\000\000\000\000\000\000UUUUUU\265?\232\231\231\231\231\231\271?\000\000\000\000\000\000\350?ffffff\326?\253\252\252\252\252\252\332?\021\021\021\021\021\021\261?\232\231\231\231\231\231\251?\253\252\252\252\252\252\332?UUUUUU\265?\253\252\252\252\252\252\342?\232\231\231\231\231\231\251?\000\000\000\000\000\000\000\000\336\335\335\335\335\335\275?\000\000\000\000\000\000\000\000\274\273\273\273\273\273\343?\021\021\021\021\021\021\321?\"\"\"\"\"\"\322?ffffff\326?\211\210\210\210\210\210\340?\021\021\021\021\021\021\241?\000\000\000\000\000\000\000\000\021\021\021\021\021\021\341?\021\021\021\021\021\021\301?\336\335\335\335\335\335\315?\021\021\021\021\021\021\261?\021\021\021\021\021\021\261?\336\335\335\335\335\335\275?\021\021\021\021\021\021\221?ffffff\326?\021\021\021\021\021\021\261?\232\231\231\231\231\231\251?\232\231\231\231\231\231\251?\000\000\000\000\000\000\000\000\232\231\231\231\231\231\251?UUUUUU\265?\232\231\231\231\231\231\351?\000\000\000\000\000\000\000\000\336\335\335\335\335\335\275?\274\273\273\273\273\273\313?UUUUUU\325?\253\252\252\252\252\252\332?\"\"\"\"\"\"\322?\000\000\000\000\000\000\000\000UUUUUU\265?\021\021\021\021\021\021\321?\232\231\231\231\231\231\251?\315\314\314\314\314\314\344?\232\231\231\231\231\231\351?\021\021\021\021\021\021\221?ffffff\326?\021\021\021\021\021\021\221?\021\021\021\021\021\021\241?\021\021\021\021\021\021\221?\232\231\231\231\231\231\251?UUUUUU\305?\021\021\021\021\021\021\241?\232\231\231\231\231\231\271?wwwwww\307?\000\000\000\000\000\000\000\000UUUUUU\325?\021\021\021\021\021\021\221?\232\231\231\231\231\231\271?\336\335\335\335\335\335\345?\336\335\335\335\335\335\315?\021\021\021\021\021\021\241?\336\335\335\335\335\335\275?\021\021\021\021\021\021\221?UUUUUU\325?\274\273\273\273\273\273\313?\211\210\210\210\210\210\340?\211\210\210\210\210\210\340?\253\252\252\252\252\252\332?\336\335\335\335\335\335\315?333333\323?\357\356\356\356\356\356\346?\232\231\231\231\231\231\251?UUUUUU\305?\021\021\021\021\021\021\221?333333\303?\021\021\021\021\021\021\241?\021\021\021\021\021\021\221?\336\335\335\335\335\335\335?\021\021\021\021\021\021\261?\021\021\021\021\021\021\301?\232\231\231\231\231\231\251?\021\021\021\021\021\021\301?\336\335\335\335\335\335\275?\021\021\021\021\021\021\241?\315\314\314\314\314\314\334?\232\231\231\231\231\231\251?\021\021\021\021\021\021\321?\021\021\021\021\021\021\221?\021\021\021\021\021\021\261?UUUUUU\265?\021\021\021\021\021\021\221?\274\273\273\273\273\273\313?\021\021\021\021\021\021\221?\021\021\021\021\021\021\241?\"\"\"\"\"\"\322?333333\323?\232\231\231\231\231\231\251?wwwwww\327?\000\000\000\000\000\000\340?\232\231\231\231\231\231\271?333333\303?\000\000\000\000\000\000\000\000\232\231\231\231\231\231\271?\021\021\021\021\021\021\221?\274\273\273\273\273\273\333?\232\231\231\231\231\231\251?\232\231\231\231\231\231\311?wwwwww\327?\000\000\000\000\000\000\320?\232\231\231\231\231\231\341?\336\335\335\335\335\335\275?ffffff\326?DDDDDD\324?wwwwww\307?\000\000\000\000\000\000\000\000\021\021\021\021\021\021\241?\315\314\314\314\314\314\334?\021\021\021\021\021\021\241?\021\021\021\021\021\021\341?333333\343?\000\000\000\000\000\000\000\000\021\021\021\021\021\021\221?\232\231\231\231\231\231\271?wwwwww\307?\232\231\231\231\231\231\311?\357\356\356\356\356\356\336?\021\021\021\021\021\021\301?DDDDDD\324?\021\021\021\021\021\021\341?\021\021\021\021\021\021\241?\021\021\021\021\021\021\221?\253\252\252\252\252\252\332?UUUUUU\325?\021\021\021\021\021\021\221?\021\021\021\021\021\021\221?\000\000\000\000\000\000\000\000UUUUUU\265?\021\021\021\021\021\021\221?\021\021\021\021\021\021\261?\021\021\021\021\021\021\221?\211\210\210\210\210\210\350?wwwwww\307?UUUUUU\265?\232\231\231\231\231\231\271?\232\231\231\231\231\231\271?\211\210\210\210\210\210\330?\"\"\"\"\"\"\342?\021\021\021\021\021\021\301?\000\000\000\000\000\000\320?\021\021\021\021\021\021\221?\021\021\021\021\021\021\221?DDDDDD\324?wwwwww\307?\021\021\021\021\021\021\261?ffffff\326?\000\000\000\000\000\000\340?\000\000\000\000\000\000\000\000UUUUUU\265?\232\231\231\231\231\231\311?\336\335\335\335\335\335\315?\232\231\231\231\231\231\311?\021\021\021\021\021\021\261?333333\303?\211\210\210\210\210\210\330?\336\335\335\335\335\335\275?\232\231\231\231\231\231\271?UUUUUU\265?\"\"\"\"\"\"\322?333333\303?\336\335\335\335\335\335\275?\336\335\335\335\335\335\275?\232\231\231\231\231\231\331?\021\021\021\021\021\021\321?\"\"\"\"\"\"\342?\021\021\021\021\021\021\301?\000\000\000\000\000\000\000\000\021\021\021\021\021\021\221?\336\335\335\335\335\335\275?UUUUUU\305?\253\252\252\252\252\252\342?\336\335\335\335\335\335\275?\021\021\021\021\021\021\221?\232\231\231\231\231\231\271?\232\231\231\231\231\231\331?\000\000\000\000\000\000\000\000\"\"\"\"\"\"\322?\232\231\231\231\231\231\251?\021\021\021\021\021\021\301?\274\273\273\273\273\273\313?UUUUUU\325?\232\231\231\231\231\231\271?\336\335\335\335\335\335\335?\021\021\021\021\021\021\221?DDDDDD\344?UUUUUU\265?\232\231\231\231\231\231\251?\232\231\231\231\231\231\331?\000\000\000\000\000\000\000\000\021\021\021\021\021\021\221?wwwwww\327?\232\231\231\231\231\231\311?UUUUUU\305?\021\021\021\021\021\021\221?DDDDDD\324?\232\231\231\231\231\231\311?\000\000\000\000\000\000\000\000\232\231\231\231\231\231\251?\021\021\021\021\021\021\221?\021\021\021\021\021\021\261?UUUUUU\265?DDDDDD\344?UUUUUU\265?\253\252\252\252\252\252\332?\211\210\210\210\210\210\330?\232\231\231\231\231\231\251?\232\231\231\231\231\231\341?\232\231\231\231\231\231\251?\357\356\356\356\356\356\336?\021\021\021\021\021\021\261?\000\000\000\000\000\000\360?\000\000\000\000\000\000\320?\021\021\021\021\021\021\301?DDDDDD\324?\232\231\231\231\231\231\251?\000\000\000\000\000\000\000\000ffffff\326?\232\231\231\231\231\231\311?\021\021\021\021\021\021\261?\021\021\021\021\021\021\221?\232\231\231\231\231\231\311?DDDDDD\324?UUUUUU\305?\000\000\000\000\000\000\000\000UUUUUU\265?\000\000\000\000\000\000\340?\253\252\252\252\252\252\332?\000\000\000\000\000\000\320?\021\021\021\021\021\021\221?\232\231\231\231\231\231\251?\357\356\356\356\356\356\336?\232\231\231\231\231\231\271?UUUUUU\265?UUUUUU\265?\232\231\231\231\231\231\271?\"\"\"\"\"\"\322?\021\021\021\021\021\021\301?\000\000\000\000\000\000\000\000"
      }
    }
  }
}
node {
  name: "normalize_element/component_1"
  op: "Const"
  device: "/device:CPU:0"
  attr {
    key: "_output_shapes"
    value {
      list {
        shape {
          dim {
            size: 537
          }
        }
      }
    }
  }
  attr {
    key: "dtype"
    value {
      type: DT_DOUBLE
    }
  }
  attr {
    key: "value"
    value {
      tensor {
        dtype: DT_DOUBLE
        tensor_shape {
          dim {
            size: 537
          }
        }
        tensor_content: ".\031\202u\264y\337?\202u\264y\237\342\342?\336\247\270d\010\326\341?\336\247\270d\010\326\341?.\031\202u\264y\317?\237\342\222!XG\333?\370).\031\202u\344?;\332\274Oq\311\340?\000\000\000\000\000\000\000\000\336\247\270d\010\326\341?\244\315\373\024\227\014\341?\202u\264y\237\342\342?.\031\202u\264y\337?.\031\202u\264y\337?\264y\237\342\222!\350?&C\260\2166\357\343?&C\260\2166\357\323?&C\260\2166\357\343?\260\2166\357S\\\342?\233\367).\031\202\345?T\\2\004\353h\343?\r\301:\332\274O\341?\212K\206`\035m\336?*.\031\202u\264\351?.\031\202u\264y\337?\202u\264y\237\342\342?.\031\202u\264y\337?\260\2166\357S\\\342?\212K\206`\035m\336?m\336\247\270d\010\346?\021\254\243\315\373\024\347?\370).\031\202u\344?.\031\202u\264y\337?\311\020\254\243\315\373\344?;\332\274Oq\311\340?\260\2166\357S\\\342?;\332\274Oq\311\340?\275Oq\311\020\254\343?\021\254\243\315\373\024\347?\000\000\000\000\000\000\000\000\244\315\373\024\227\014\341?C\260\2166\357S\334?i\363>\305%C\340?\370).\031\202u\344?\202u\264y\237\342\342?\336\247\270d\010\326\341?\233\367).\031\202\345?&C\260\2166\357\343?\212K\206`\035m\336?\264y\237\342\222!\330?\343\222!XG\233\347?T\\2\004\353h\343?\025\227\014\301:\332\354?\264y\237\342\222!\350?\336\247\270d\010\326\341?\260\2166\357S\\\342?\233\367).\031\202\345?\336\247\270d\010\326\341?\370).\031\202u\344?\311\020\254\243\315\373\344?.\031\202u\264y\337?\025\227\014\301:\332\354?\r\301:\332\274O\341?\264y\237\342\222!\350?\336\247\270d\010\326\341?XG\233\367).\351?\237\342\222!XG\353?\000\000\000\000\000\000\000\000T\\2\004\353h\343?\347}\212K\206`\335?\233\367).\031\202\345?;\332\274Oq\311\340?;\332\274Oq\311\340?\202u\264y\237\342\342?\000\000\000\000\000\000\000\000\336\247\270d\010\326\341?\000\000\000\000\000\000\000\000\000\000\000\000\000\000\000\000XG\233\367).\351??\305%C\260\216\346?\343\222!XG\233\347?\343\222!XG\233\347?;\332\274Oq\311\340?\370).\031\202u\344?i\363>\305%C\340?\370).\031\202u\344?\202u\264y\237\342\342?\260\2166\357S\\\342?\343\222!XG\233\347?\202u\264y\237\342\342?\316\373\024\227\014\301\352?\000\000\000\000\000\000\000\000\000\000\000\000\000\000\000\000\311\020\254\243\315\373\344?T\\2\004\353h\343?\260\2166\357S\\\342?C\260\2166\357S\334?\233\367).\031\202\345?XG\233\367).\331?;\332\274Oq\311\340?;\332\274Oq\311\340?\r\301:\332\274O\341?\343\222!XG\233\347?&C\260\2166\357\343?i\363>\305%C\340?m\336\247\270d\010\346?\260\2166\357S\\\342?\260\2166\357S\\\342?XG\233\367).\331?.\031\202u\264y\317?\233\367).\031\202\345?\202u\264y\237\342\342?m\336\247\270d\010\346?\202u\264y\237\342\342?\264y\237\342\222!\350??\305%C\260\216\346?q\311\020\254\243\315\353?\336\247\270d\010\326\341?T\\2\004\353h\343?T\\2\004\353h\343?T\\2\004\353h\343?\260\2166\357S\\\342?\343\222!XG\233\347?\021\254\243\315\373\024\347?\000\000\000\000\000\000\000\000\260\2166\357S\\\342?\r\301:\332\274O\341?.\031\202u\264y\337?i\363>\305%C\340??\305%C\260\216\346?T\\2\004\353h\343?T\\2\004\353h\343?\370).\031\202u\344?\237\342\222!XG\333?.\031\202u\264y\337?\336\247\270d\010\326\341?\r\301:\332\274O\341?\021\254\243\315\373\024\347?\347}\212K\206`\335?\311\020\254\243\315\373\344?;\332\274Oq\311\340?\233\367).\031\202\345?\000\000\000\000\000\000\000\000m\336\247\270d\010\346?\260\2166\357S\\\342?T\\2\004\353h\343?\212K\206`\035m\336?;\332\274Oq\311\340?\336\247\270d\010\326\341?.\031\202u\264y\337?\202u\264y\237\342\342?\370).\031\202u\344?\233\367).\031\202\345?m\336\247\270d\010\346?;\332\274Oq\311\340?\233\367).\031\202\345?&C\260\2166\357\343?\260\2166\357S\\\342?i\363>\305%C\340?T\\2\004\353h\343?\260\2166\357S\\\342?&C\260\2166\357\343?\212K\206`\035m\336?\370).\031\202u\344?\336\247\270d\010\326\341?\233\367).\031\202\345?T\\2\004\353h\343?\326\321\346}\212K\346?\202u\264y\237\342\342?\021\254\243\315\373\024\327?T\\2\004\353h\343?i\363>\305%C\340?;\332\274Oq\311\340?\237\342\222!XG\333?\206`\035m\336\247\350?\233\367).\031\202\345?\260\2166\357S\\\342?\260\2166\357S\\\342?.\031\202u\264y\337?\260\2166\357S\\\342?\000\000\000\000\000\000\000\000\370).\031\202u\344?T\\2\004\353h\343?\r\301:\332\274O\341?\374\024\227\014\301:\332?\311\020\254\243\315\373\344?i\363>\305%C\340?T\\2\004\353h\343?&C\260\2166\357\343?\370).\031\202u\344?\260\2166\357S\\\342?\021\254\243\315\373\024\327?\343\222!XG\233\347?\336\247\270d\010\326\341?.\031\202u\264y\337?\326\321\346}\212K\346?\370).\031\202u\344?\260\2166\357S\\\342?\336\247\270d\010\326\341?T\\2\004\353h\343?\370).\031\202u\344?m\336\247\270d\010\346?\370).\031\202u\344?\260\2166\357S\\\342?&C\260\2166\357\343?T\\2\004\353h\343?\000\000\000\000\000\000\000\000?\305%C\260\216\346?i\363>\305%C\340?\370).\031\202u\344?.\031\202u\264y\337?&C\260\2166\357\343?;\332\274Oq\311\340?\021\254\243\315\373\024\347?&C\260\2166\357\343?\000\000\000\000\000\000\000\000\260\2166\357S\\\342?T\\2\004\353h\343?\260\2166\357S\\\342?\260\2166\357S\\\342?;\332\274Oq\311\340??\305%C\260\216\346?\206`\035m\336\247\350?\202u\264y\237\342\342?i\363>\305%C\340?\264y\237\342\222!\350?\021\254\243\315\373\024\347?;\332\274Oq\311\340?\233\367).\031\202\345?\311\020\254\243\315\373\344?\212K\206`\035m\336??\305%C\260\216\346?\r\301:\332\274O\341?\311\020\254\243\315\373\344?.\031\202u\264y\337?\347}\212K\206`\335?\311\020\254\243\315\373\344?T\\2\004\353h\343?\021\254\243\315\373\024\347?\r\301:\332\274O\341?T\\2\004\353h\343?&C\260\2166\357\343?\260\2166\357S\\\342?m\336\247\270d\010\346?\r\301:\332\274O\341?\206`\035m\336\247\350?&C\260\2166\357\343?\r\301:\332\274O\341?&C\260\2166\357\343?\343\222!XG\233\347?\311\020\254\243\315\373\344?\202u\264y\237\342\342?\260\2166\357S\\\342?\311\020\254\243\315\373\344?\370).\031\202u\344??\305%C\260\216\346?i\363>\305%C\340?T\\2\004\353h\343?\260\2166\357S\\\342?\370).\031\202u\344?&C\260\2166\357\343?i\363>\305%C\340?\311\020\254\243\315\373\344?\275Oq\311\020\254\343?\311\020\254\243\315\373\344?T\\2\004\353h\343?\311\020\254\243\315\373\344?&C\260\2166\357\343?\347}\212K\206`\335?\343\222!XG\233\347?.\031\202u\264y\337?\237\342\222!XG\333?\370).\031\202u\344?\233\367).\031\202\345?;\332\274Oq\311\340?\311\020\254\243\315\373\344?\202u\264y\237\342\342?\237\342\222!XG\333?\212K\206`\035m\336?XG\233\367).\351?\025\227\014\301:\332\334?\311\020\254\243\315\373\344?\311\020\254\243\315\373\344?;\332\274Oq\311\340?\212K\206`\035m\336?\r\301:\332\274O\341?\021\254\243\315\373\024\327?\311\020\254\243\315\373\344?\021\254\243\315\373\024\347??\305%C\260\216\346?\343\222!XG\233\347?\336\247\270d\010\326\341?\370).\031\202u\344?i\363>\305%C\340?&C\260\2166\357\343?\326\321\346}\212K\346?\202u\264y\237\342\342?\336\247\270d\010\326\341?;\332\274Oq\311\340?&C\260\2166\357\343?\343\222!XG\233\347?\244\315\373\024\227\014\341?\370).\031\202u\344??\305%C\260\216\346?\237\342\222!XG\353?C\260\2166\357S\334?XG\233\367).\311?\260\2166\357S\\\342?\021\254\243\315\373\024\347?&C\260\2166\357\343?\336\247\270d\010\326\341?\336\247\270d\010\326\341?*.\031\202u\264\351?\347}\212K\206`\335?\336\247\270d\010\326\341?\370).\031\202u\344?\260\2166\357S\\\342?m\336\247\270d\010\346?.\031\202u\264y\337?T\\2\004\353h\343?\311\020\254\243\315\373\344?\233\367).\031\202\345?\260\2166\357S\\\342?\202u\264y\237\342\342?;\332\274Oq\311\340?\311\020\254\243\315\373\344?i\363>\305%C\340?i\363>\305%C\340?\343\222!XG\233\347?i\363>\305%C\340?\370).\031\202u\344?\202u\264y\237\342\342?\336\247\270d\010\326\341?\311\020\254\243\315\373\344?\212K\206`\035m\336?\r\301:\332\274O\341?\347}\212K\206`\335?i\363>\305%C\340?i\363>\305%C\340?XG\233\367).\331?;\332\274Oq\311\340?T\\2\004\353h\343?.\031\202u\264y\337?\336\247\270d\010\326\341?\260\2166\357S\\\342?\336\247\270d\010\326\341?m\336\247\270d\010\346?\311\020\254\243\315\373\344?m\336\247\270d\010\346?m\336\247\270d\010\346?i\363>\305%C\340?\000\000\000\000\000\000\000\000\000\000\000\000\000\000\000\000\r\301:\332\274O\341?\370).\031\202u\344??\305%C\260\216\346?\021\254\243\315\373\024\347?&C\260\2166\357\343?T\\2\004\353h\343?\021\254\243\315\373\024\347?\370).\031\202u\344?;\332\274Oq\311\340?i\363>\305%C\340?\r\301:\332\274O\341?\336\247\270d\010\326\341?&C\260\2166\357\343?\311\020\254\243\315\373\344?\336\247\270d\010\326\341?\212K\206`\035m\336?\336\247\270d\010\326\341?C\260\2166\357S\334?T\\2\004\353h\343?\343\222!XG\233\347?T\\2\004\353h\343?T\\2\004\353h\343?\374\024\227\014\301:\332?\021\254\243\315\373\024\347?\233\367).\031\202\345?\260\2166\357S\\\342?\r\301:\332\274O\341?\237\342\222!XG\333?;\332\274Oq\311\340?\r\301:\332\274O\341?\000\000\000\000\000\000\000\000\233\367).\031\202\345?\343\222!XG\233\347?;\332\274Oq\311\340?\336\247\270d\010\326\341?q\311\020\254\243\315\353?.\031\202u\264y\337?\260\2166\357S\\\342?\311\020\254\243\315\373\344?T\\2\004\353h\343?C\260\2166\357S\334?\202u\264y\237\342\342?\212K\206`\035m\336?.\031\202u\264y\337?T\\2\004\353h\343?\233\367).\031\202\345?m\336\247\270d\010\346?T\\2\004\353h\343?\336\247\270d\010\326\341?\202u\264y\237\342\342?.\031\202u\264y\337?;\332\274Oq\311\340??\305%C\260\216\346?\202u\264y\237\342\342?i\363>\305%C\340??\305%C\260\216\346?&C\260\2166\357\343?;\332\274Oq\311\340?\r\301:\332\274O\341?C\260\2166\357S\334?\336\247\270d\010\326\341?\311\020\254\243\315\373\324?\311\020\254\243\315\373\344?\374\024\227\014\301:\332?\021\254\243\315\373\024\347?&C\260\2166\357\343?\374\024\227\014\301:\332?.\031\202u\264y\337?\202u\264y\237\342\342?\336\247\270d\010\326\341?\260\2166\357S\\\342?\212K\206`\035m\336?\311\020\254\243\315\373\344?\336\247\270d\010\326\341?\r\301:\332\274O\341?\237\342\222!XG\333??\305%C\260\216\346?\311\020\254\243\315\373\344?\275Oq\311\020\254\343?\347}\212K\206`\335?\336\247\270d\010\326\341?&C\260\2166\357\343?\311\020\254\243\315\373\344?\260\2166\357S\\\342?\311\020\254\243\315\373\344?i\363>\305%C\340?\260\2166\357S\\\342?\374\024\227\014\301:\332?\021\254\243\315\373\024\347?T\\2\004\353h\343?\260\2166\357S\\\342?\r\301:\332\274O\341?\202u\264y\237\342\342?\237\342\222!XG\333?;\332\274Oq\311\340?\336\247\270d\010\326\341?\374\024\227\014\301:\352?*.\031\202u\264\351?i\363>\305%C\340?\r\301:\332\274O\341?&C\260\2166\357\343?i\363>\305%C\340?m\336\247\270d\010\346?i\363>\305%C\340?i\363>\305%C\340?\202u\264y\237\342\342?\000\000\000\000\000\000\000\000\233\367).\031\202\345?T\\2\004\353h\343?\260\2166\357S\\\342?\000\000\000\000\000\000\340?\311\020\254\243\315\373\344?\347}\212K\206`\335?C\260\2166\357S\334?\336\247\270d\010\326\341?\r\301:\332\274O\341?\202u\264y\237\342\342?\r\301:\332\274O\341?\021\254\243\315\373\024\327?\202u\264y\237\342\342?\370).\031\202u\344?\374\024\227\014\301:\332?;\332\274Oq\311\340?C\260\2166\357S\334?\202u\264y\237\342\342?\311\020\254\243\315\373\344?m\336\247\270d\010\346?\311\020\254\243\315\373\344?\021\254\243\315\373\024\347?\260\2166\357S\\\342?.\031\202u\264y\337?\336\247\270d\010\326\341?\021\254\243\315\373\024\347?\374\024\227\014\301:\352?\370).\031\202u\344?\r\301:\332\274O\341?T\\2\004\353h\343?T\\2\004\353h\343?\000\000\000\000\000\000\000\000\260\2166\357S\\\342?\370).\031\202u\344?\374\024\227\014\301:\332?\202u\264y\237\342\342?\336\247\270d\010\326\341?;\332\274Oq\311\340?\311\020\254\243\315\373\344?\260\2166\357S\\\342?m\336\247\270d\010\346?&C\260\2166\357\343?\202u\264y\237\342\342?\233\367).\031\202\345?;\332\274Oq\311\340?&C\260\2166\357\343?\311\020\254\243\315\373\344?m\336\247\270d\010\346?\374\024\227\014\301:\332?T\\2\004\353h\343?\343\222!XG\233\347?.\031\202u\264y\337?\260\2166\357S\\\342?C\260\2166\357S\334?T\\2\004\353h\343?\343\222!XG\233\347??\305%C\260\216\346?\336\247\270d\010\326\341?&C\260\2166\357\343?\260\2166\357S\\\342?\311\020\254\243\315\373\344?\343\222!XG\233\347?;\332\274Oq\311\340?\336\247\270d\010\326\341?m\336\247\270d\010\346?\202u\264y\237\342\342?\233\367).\031\202\345?\237\342\222!XG\333?;\332\274Oq\311\340?T\\2\004\353h\343?\021\254\243\315\373\024\347?&C\260\2166\357\343?;\332\274Oq\311\340?\000\000\000\000\000\000\360??\305%C\260\216\346?\000\000\000\000\000\000\000\000XG\233\367).\351?"
      }
    }
  }
}
node {
  name: "normalize_element/component_2"
  op: "Const"
  device: "/device:CPU:0"
  attr {
    key: "_output_shapes"
    value {
      list {
        shape {
          dim {
            size: 537
          }
        }
      }
    }
  }
  attr {
    key: "dtype"
    value {
      type: DT_DOUBLE
    }
  }
  attr {
    key: "value"
    value {
      tensor {
        dtype: DT_DOUBLE
        tensor_shape {
          dim {
            size: 537
          }
        }
        tensor_content: "A\213\215S\273\313\326?\334\341PT\375\230\341?(\t\030\237A,\344?\312\316\336H\037\222\337?-\225\347\277W\246\344?\006-6N\355.\333?\\\256i5\014 \324?n\177\016\346;\275\340?\r\301:\332\274O\341?\0268s\356\021\217\327?|\202\026\033\247v\327?\224c%\242Ia\337?$\334\341PT\375\330?\325\217\031#\334\341\340?i\363>\305%C\340?\017\346;\275\360\327\346?n\336\247\270d\010\326?\3145\255\206\001\204\332?\350\277W\2464\312\342?\241$`|\006\261\340?1\200P\263\226k\332?\323\311\261\022\321\244\340?\021\254\243\315\373\024\327?\334@\352&&\344\326?\325ML\310-x\333?e\306\010w8\024\325?\256\206\001\204\232\265\334?*\215\262T\236\377\336?O/\374\265\3759\330?\366c\306\010w8\344?\250v\227\255\'h\341?QT\375\2301\302\335?\225\245\362\374\367\312\324?sjw\331z\202\326?D\260\2166\357S\334?\325\217\031#\334\341\340?\2321\302\035\016E\345?&\001\3433\210\205\336?\017\207\242\352\307\214\341?\001\241f-\327\264\332?\203u\264y\237\342\342?\030]t\321E\027\335?\254a\000\241f-\327?p\244\017\311oE\346?\350}\212K\206`\335?\363\374\367\312\224F\331?\261\2166\357S\\\342?\247\3250\200P\263\326?XG\233\367).\331?\321\003J\002\306g\340?\250v\227\255\'h\341?\256\310\316\336H\037\342?\003\0105k\271\246\345?\003\0105k\271\246\325?\252\3721c\204;\334?\2023\347\036\361x\335?*\215\262T\236\377\336?\270\340m u\023\323?\317\234{\304\343u\345?\035+\021M\n\373\342?\371\255\310\316\336H\337?\000\000\000\000\000\000\360?$}H~+\262\343?\332\033\351C\362[\341?:\230\357\364\302_\333?:\230\357\364\302_\333?\003\251\233\230\220[\340?\023\321\244\260/\235\334?T\273\313\326\023\264\330?\256\206\001\204\232\265\334?&\001\3433\210\205\336?QT\375\2301\302\335?\301\370\014b\241\007\324?\265y\237\342\222!\330?\\\256i5\014 \324?&\001\3433\210\205\336?N\n\373\322\311\261\322?\000\000\000\000\000\000\000\000\000\000\000\000\000\000\000\000\256\206\001\204\232\265\334?\035+\021M\n\373\342?\274*p\346\334#\336?\332\033\351C\362[\321?\263T\236\377^\231\342?\357p(\252~\314\330?\370).\031\202u\344?\227\312\363\337+S\332?!\267\340m u\323?\032\304B\017(\t\330?\247\3250\200P\263\326?\371\255\310\316\336H\337?-\225\347\277W\246\344?\000\000\000\000\000\000\000\000\370\210\307\353\252\300\331?\227\312\363\337+S\332?\310JD\223\302\276\344?\234\230\220[\3606\340?\207\001\204\232\265\\\343?\0268s\356\021\217\327?\207\001\204\232\265\\\343?\3145\255\206\001\204\332?N\n\373\322\311\261\322?}\247\027\376\332\376\334?f\353\tZl\234\332?\032\304B\017(\t\330?\330U\2013\347\036\341?w\227\255\'h\261\341?7N\355.[O\340?5\210\205\036P\022\340?\374\024\227\014\301:\352?\374\024\227\014\301:\332?s\013\336\006R7\341?\350}\212K\206`\335?g-\327\264\032\006\340?\243\352\307\214\021\356\340?\374\024\227\014\301:\332?\243\352\307\214\021\356\340?\341\314\271G<^\327?K\243,\225\347\277\327?\3145\255\206\001\204\332?\234\230\220[\3606\340?B,\364\200\222\200\341?\236^\370k\373s\340?\236^\370k\373s\340?\337e\353\tZl\334?7N\355.[O\340?|#}H~+\342?\337e\353\tZl\334?\371\255\310\316\336H\337?\001\241f-\327\264\332?\017\207\242\352\307\214\341?x\033H\335\304\204\334?\252\3721c\204;\334?\200\016\346;\275\360\327?XG\233\367).\331?\261\355\317\301|\247\327?$\334\341PT\375\330?6\255\206\001\204\232\345?D\260\2166\357S\334?\274l=A\213\215\343?\000\000\000\000\000\000\000\000&\001\3433\210\205\336?\023\321\244\260/\235\334?\350\277W\2464\312\342?}\247\027\376\332\376\334?\350\277W\2464\312\342?\017E\325\217\031#\334?\2762\245Q\226\312\343?\370\210\307\353\252\300\331?5\210\205\036P\022\340?\263T\236\377^\231\342?D\260\2166\357S\354?\241\203\371N/\374\345?\217\327U\2013\347\336?\350}\212K\206`\335?\200\257Li\224\245\342?\301\370\014b\241\007\324?\\\256i5\014 \324?D\260\2166\357S\334?\265\032\006\020j\326\342?\310\251\335e\353\t\332?\3769\230\357\364\302\337?\224c%\242Ia\337?\2023\347\036\361x\335?\330U\2013\347\036\341?pEv\366F\372\340?\216\262T\236\377^\331?\337\247\270d\010\326\341?\r\301:\332\274O\341?\243\352\307\214\021\356\340?\274*p\346\334#\336?-\364\200\222\200\361\331?\256\310\316\336H\037\342?*\215\262T\236\377\336?\371\255\310\316\336H\337?\265\032\006\020j\326\342?\323\311\261\022\321\244\340?o\003\251\233\230\220\333?\374\024\227\014\301:\332?l\271\246\3250\200\340?o\003\251\233\230\220\333?\217\327U\2013\347\336?\216\262T\236\377^\331?&\001\3433\210\205\336?\317=\342\361\272*\340?\223>$\277\025\331\331?/[O\320b\343\324?T\273\313\326\023\264\330?P\320b\343\324\356\342?^t\321E\027]\344?\267\236\240\305\306\251\335?\334@\352&&\344\326?kw\331z\202\026\333?I~+\262\2637\342?\241\342\222!XG\333?\023\321\244\260/\235\334?u\321E\027]t\341?\003\251\233\230\220[\340?-\364\200\222\200\361\331?\276\221>$\277\025\331?\323(K\345\371\357\325?=\377\2752\245Q\346?\017\346;\275\360\327\346?\370).\031\202u\344?\357\021\217\327U\201\343?T\273\313\326\023\264\330?\377{eJ\243,\325?\236\275\221>$\277\345?\234\230\220[\3606\340?\227\312\363\337+S\332?\310JD\223\302\276\344?\250v\227\255\'h\341?\366c\306\010w8\324?=\377\2752\245Q\346?6\255\206\001\204\232\345?\032\304B\017(\t\330?\341m u\023\023\342?\252\3721c\204;\334?7N\355.[O\340?b_:9V\"\332?g-\327\264\032\006\340?z]\0258s\356\341?!\267\340m u\343?&\001\3433\210\205\336?iR\330\227N\216\325?QT\375\2301\302\335?\314\326\023\264\3308\345?\017\207\242\352\307\214\341?\0268s\356\021\217\327?\010\224\004\214\317 \326?\274*p\346\334#\336?b_:9V\"\332?\003\251\233\230\220[\340?l\271\246\3250\200\340?\372\357\225)\215\262\324?\021\254\243\315\373\024\327?e\204;\034\212\252\337?\205\232\265\\\323j\330?-\225\347\277W\246\344?\301\370\014b\241\007\344?\332\331\033\351C\362\333?:\230\357\364\302_\333?\325\217\031#\334\341\340?8s\356\021\217\327\345?\200\257Li\224\245\342?`\370k\373s0\337?kw\331z\202\026\333?\234V\303\000B\315\332?\021\254\243\315\373\024\327?\265\032\006\020j\326\342?~\351\344X\211h\322?\217\327U\2013\347\336?\243\352\307\214\021\356\340?\250v\227\255\'h\341?\371\255\310\316\336H\337?}\247\027\376\332\376\334?\274*p\346\334#\336?\357p(\252~\314\330?\274*p\346\334#\336?l\271\246\3250\200\340?\350\277W\2464\312\342?\263T\236\377^\231\322?\217\327U\2013\347\336?x\033H\335\304\204\334?\030\237A,\364\200\322?\323\311\261\022\321\244\340?iR\330\227N\216\345?\224c%\242Ia\337?\032\304B\017(\t\330?\227kZ\r\003\010\345?u\321E\027]t\341?@f\214p\207C\341?\241\203\371N/\374\345?\3433\210\205\036P\342?e\204;\034\212\252\337?(\t\030\237A,\344?`\370k\373s0\337?LD\223\302\276t\342?\3769\230\357\364\302\337?iR\330\227N\216\325?F\027]t\321E\327?\346\371\357\225)\215\342?\006o\003\251\233\230\340?\3769\230\357\364\302\337?\006-6N\355.\333?|#}H~+\342?\350}\212K\206`\335?e\306\010w8\024\345?\3145\255\206\001\204\332?\003\251\233\230\220[\340?\252\3721c\204;\334?\213K\206`\035m\336?\350\277W\2464\312\342?\234\230\220[\3606\340?>\240$`|\006\341?\323\311\261\022\321\244\340?\216\262T\236\377^\331?\357p(\252~\314\330?XG\233\367).\331?\010\224\004\214\317 \326?5\210\205\036P\022\340?/[O\320b\343\324?\274*p\346\334#\336?\200\257Li\224\245\342?G\270\303\241\250\372\341?\032\304B\017(\t\330?\3145\255\206\001\204\332?\030]t\321E\027\335?G\270\303\241\250\372\341?e\204;\034\212\252\337?\352\205\277\266?\007\343?\n\373\322\311\261\022\341?&\242Ia_:\351?\317\234{\304\343u\325?n\336\247\270d\010\346?s\013\336\006R7\341?\301\266?\007\363\235\336?M\310-x\033H\335?l\271\246\3250\200\340?\337\247\270d\010\326\341?*\215\262T\236\377\336?\000\000\000\000\000\000\000\000b_:9V\"\332?\205\232\265\\\323j\330?\030]t\321E\027\335?\371\255\310\316\336H\337?&\001\3433\210\205\336?W\"\232\024\366\245\343?\216S\273\313\326\023\344?\225\245\362\374\367\312\324?\227\312\363\337+S\332?\205\232\265\\\323j\330?\256\206\001\204\232\265\334?\303\035\016E\325\217\331?\225\245\362\374\367\312\324?\217\327U\2013\347\336?\n\271\005o\003\251\333?8s\356\021\217\327\325?\265y\237\342\222!\330?\272\246\3250\200P\343?&\001\3433\210\205\336?g-\327\264\032\006\340?\303\035\016E\325\217\331?\310\251\335e\353\t\332?\332\033\351C\362[\321?QT\375\2301\302\335?>\240$`|\006\341?\365!\371\255\310\316\336?f\353\tZl\234\332?\241$`|\006\261\340?\334@\352&&\344\326?\r \324\254\345\232\326?\345X\211hR\330\327?\024\023r\013\336\006\342?kw\331z\202\026\333?\3769\230\357\364\302\337?\241$`|\006\261\340?6\255\206\001\204\232\345?\365!\371\255\310\316\336?\207\001\204\232\265\\\343?\345X\211hR\330\327?\270\340m u\023\343?T\273\313\326\023\264\330?\\l\234\332]\266\336?\357p(\252~\314\330?QT\375\2301\302\335?O/\374\265\3759\330?g-\327\264\032\006\340?\323\311\261\022\321\244\340?\241$`|\006\261\340?\2023\347\036\361x\335?\030]t\321E\027\335?>\240$`|\006\341?w\366F\372\220\374\326?\0105k\271\246\325\340?T\273\313\326\023\264\330?\217\327U\2013\347\336?\032\304B\017(\t\330?\254a\000\241f-\327?sjw\331z\202\326?\256\206\001\204\232\265\334?b_:9V\"\332?\030\237A,\364\200\342?\330\264\032\006\020j\326?\3769\230\357\364\302\337?&\001\3433\210\205\336?QT\375\2301\302\335?\261\2166\357S\\\342?\263T\236\377^\231\342?\001\3433\210\205\036\340?|#}H~+\342?\370).\031\202u\344?\217\327U\2013\347\336?\205\232\265\\\323j\330?\357\021\217\327U\201\343?\274*p\346\334#\336?\334@\352&&\344\326?\350\277W\2464\312\342?\350}\212K\206`\335?1\200P\263\226k\332?i\363>\305%C\340?\332\331\033\351C\362\333?\317=\342\361\272*\340?]\323j\030@\250\331??$\277\025\331\331\333?\256\206\001\204\232\265\334?\214\215S\273\313\326\323?x\033H\335\304\204\334?\261\355\317\301|\247\327?\254\002g\316=\342\341?\r \324\254\345\232\326?\003\251\233\230\220[\340?\303\035\016E\325\217\331?\023\321\244\260/\235\334?\223\337\212\354\354\215\344?\017E\325\217\031#\334?\321\301|\247\027\376\332?I~+\262\2637\342?\225\245\362\374\367\312\344?:\230\357\364\302_\333?9\024U?f\214\340?o\003\251\233\230\220\333?\263T\236\377^\231\342?\001\241f-\327\264\332?\261\355\317\301|\247\327?\035\351C\362[\221\335?\\\256i5\014 \324?\010\224\004\214\317 \326?\245\260/\235\034+\341?\312\020\254\243\315\373\344?\212&\205}\351\344\330?DQ\365c\306\010\347?\214\215S\273\313\326\323?\332\033\351C\362[\321?l\030@\250Y\313\345?\321\003J\002\306g\340?\200\016\346;\275\360\327?QT\375\2301\302\335?\345X\211hR\330\327?e\204;\034\212\252\337?\024\023r\013\336\006\342?\236^\370k\373s\340?;9V\"\232\024\346?\345X\211hR\330\327?\371\255\310\316\336H\337?\272\005o\003\251\233\330?|\202\026\033\247v\327?\234\230\220[\3606\340?\371\255\310\316\336H\337?\372\357\225)\215\262\344?&\001\3433\210\205\336?\n\373\322\311\261\022\341?F\027]t\321E\327?QT\375\2301\302\335?\243\352\307\214\021\356\340?\001\241f-\327\264\332?\225\245\362\374\367\312\324?g-\327\264\032\006\340?$\334\341PT\375\330?\374\024\227\014\301:\332?\205;\034\212\252\037\343?E\362[\221\235\275\341?\352\344X\211hR\330?\021\254\243\315\373\024\327?5\210\205\036P\022\340?:\230\357\364\302_\333?\212&\205}\351\344\330?\274*p\346\334#\336?\216\262T\236\377^\331?n\336\247\270d\010\326?$}H~+\262\343?4\347\036\361x]\325?A\213\215S\273\313\326?\227\312\363\337+S\332?}\247\027\376\332\376\334?i\363>\305%C\340?\024\023r\013\336\006\342?\227\312\363\337+S\332?&\001\3433\210\205\336?\352\205\277\266?\007\343?\217\327U\2013\347\336?\261\2166\357S\\\342?\312\316\336H\037\222\337?\256\206\001\204\232\265\334?i\363>\305%C\340?\223>$\277\025\331\331?-\225\347\277W\246\344?e\204;\034\212\252\337?*\215\262T\236\377\336?\312\020\254\243\315\373\344?=\377\2752\245Q\326?e\306\010w8\024\345?QT\375\2301\302\335?\021M\n\373\322\311\341?\223>$\277\025\331\331?~\351\344X\211h\342?z]\0258s\356\341?n\336\247\270d\010\326?\274*p\346\334#\336?\314\326\023\264\3308\345?\310\251\335e\353\t\332?\261\355\317\301|\247\347?D\260\2166\357S\334?\272\246\3250\200P\343?o\003\251\233\230\220\333?\001\3433\210\205\036\340?F\027]t\321E\327?\325\217\031#\334\341\340?\017E\325\217\031#\334?T\273\313\326\023\264\330?D\260\2166\357S\334?\363\374\367\312\224F\331?\312\316\336H\037\222\337?\2321\302\035\016E\325?$\334\341PT\375\330?4\245Q\226\312\363\337?9\024U?f\214\340?\030]t\321E\027\335?\370).\031\202u\344?D\260\2166\357S\334?\341m u\023\023\342?~H~+\262\263\347?\n\373\322\311\261\022\341?\261\2166\357S\\\342?z]\0258s\356\341?n\336\247\270d\010\326?7N\355.[O\340?\3145\255\206\001\204\332?7N\355.[O\340?s\013\336\006R7\341?\032e\251<\377\275\342?\330U\2013\347\036\341?\241\342\222!XG\333?4\347\036\361x]\325?\236\275\221>$\277\345?\366c\306\010w8\344?\317\234{\304\343u\325?"
      }
    }
  }
}
node {
  name: "normalize_element/component_3"
  op: "Const"
  device: "/device:CPU:0"
  attr {
    key: "_output_shapes"
    value {
      list {
        shape {
          dim {
            size: 537
          }
        }
      }
    }
  }
  attr {
    key: "dtype"
    value {
      type: DT_DOUBLE
    }
  }
  attr {
    key: "value"
    value {
      tensor {
        dtype: DT_DOUBLE
        tensor_shape {
          dim {
            size: 537
          }
        }
        tensor_content: "y\222V<\344\344\263?\004\265\254\256;\265\241? ]\022$\031_\277?\\~\n\3602\355\241?P\225w\317i\364\246?\332\276m\016\n&\346?\333\267\315A\301\304\264?K\035\336\330`\307\320?\327n\007jY]\327?E\254\344\256\240\373\253?\376\006\240\314Ha\261?4\201+\203\270\374\264?T\266\nUy\367\274?\236\002\274L{\204\266?JZ\361\220\223O\274?\314\255\247\233\350\310\263?\262\360a\3000\373\301?\376\006\240\314Ha\261?Q_\004\344\177\315\314?Nt\344IZ\361\260?\267h\373\2669(\270?G9^\013\204L\226?Yd\0277lK\315?\320\316:!\370\313\331?u\177\003Pf\244\320?\212\363\202S\266\n\305?\\\022$\031_\237\275?4\201+\203\270\374\264?&A\222\361\365\331\311?\346\335s\032\275E\333?\263\0375\337\321\300\332?I\306\327gg\235\300?%w\005\335\337\000\304?\321\316:!\370\313\231?%\013\037\006\014\263\277?F9^\013\204L\266?\315A\301\304\024{\277?\377\006\240\314Ha\301?/n\330\226:\274\321?\000\233\271\365t\023\315?VC\204\261\\H\327?\231\3075\016\245\337\313?\225\246\242\210\225\334\245?%w\005\335\337\000\264?\377k\346\326\323M\324?\027m\3376\007\005\243?(\230\230b\357\003\312?\214J\211\304\2574\305?a\3000\373Q\363\275?\344\023\347\005\247l\245?\317\316:!\370\313\271?p\000\312\214\024\026\311?,\027\322%A\222\321?\245=B\213Q)\261?\'i\305CN>\321?;P\313\352\272S\273?\245=B\213Q)\261?R\"\361+ME\261?\274\026\010\231,|\250?=\335DG\236\244\245?F9^\013\204L\246?-F\245D\342W\272?&\334K\347j\355\326?\272\277\001(3R\330?\273\026\010\231,|x?S\"\361+ME\241?\036r\362\211\363\202\303?\232T\257j\2100\306?\r\021\306r!]\242?+\357\236\323\350-\312?\326\t\301_\316p\304?\352\213\200\374\257\231\313?\026m\3376\007\005\263?\'\013\037\006\014\263\317?\247\321[\264}\333\274?\244\346;\032X\377\300?\331`\307\320\307\232\324?\310\377\232\271\365t\263?\242\2175\251^\325\260?\364>\2401\217k\234?\200\227i\217\320b\304?O\331*T\345\335\323?\267h\373\2669(\270?%w\005\335\337\000\264?\'\013\037\006\014\263\257?_\237\235uB\360\307?\260\231[O7\321\321?\245=B\213Q)\261?#\352\213\200\374\257\271?\352\301\363\347\231\300\265?\373X\223\352U\r\261?F9^\013\204L\266?dM\252W5D\250?\314\255\247\233\350\310\263?\264Gh1*%\262?\003I\306\327gg\275?\246\007\317\237g\002\307?u\177\003Pf\244\320?\344\206m\251\303\033\233?\244\260\310.n\330\306?\203\356o\000\312\214\304?E\254\344\256\240\373\273?\226\246\242\210\225\334\225?\030\001\371_3\267\316?\226\246\242\210\225\334\225?\354\342\206m\251\303\313?\360\374y&pe\240?C\254\344\256\240\373\233?\316A\301\304\024{\317?\244\260\310.n\330\306?\2303\034\345x-\220?~@c\036\3278\264?\256\247\233\350\310\223\324?\2702\210\313O\001\316?\226\246\242\210\225\334\265?m\251\303\033\033\354\270?J\347j\355v\240\266?R\266\nUy\367\334?\013\272\277\001(3\322?q6=x\376<\203?\035\257\005B&\013\257?\331\226:\274\261\301\356?\024\026\331\305\r\333\302?\366>\2401\217k\314?S\354}@c\036\307?j\2100\226\013\351\262?\315A\301\304\024{\237?\2002#\205Ev\321?\376\006\240\314Ha\261?\273L{\204\026\243\302?\251\353NmD}q?\333\267\315A\301\304\264?v;P\313\352\272\303?\000\000\000\000\000\000\000\000\014\204L\026>\014\230?\364>\2401\217k\234?#\352\213\200\374\257\271?X\232\212\"Vr\307?\204\017\003\206\331\217\312?Wd\0277lK\275?\213Q)\221\370\225\346?\235\341(\307k\201\320?\347\005\247l\025\252\322?\251\224H\374JS\301?{\263\351\301\363\347\271?\275\026\010\231,|\230?\243\260\310.n\330\266?\332\267\315A\301\304\244?`,\027\322%A\262?`,\027\322%A\262?txc\203\035C\337?\000\000\000\000\000\000\360?\361\220\223O\234\027\274?q\215C\351\367f\303?h1*%\022\277\302?\265\021\365E@\376\327?\236uB\360\2273\254?\244\346;\032X\377\300?\234\341(\307k\201\300?\255\014\342\362S\200\267?\302\026\010\231,|h?\226\246\242\210\225\334\265?G\003\353\037\232%\314?\277\243\201\365\017\315\242?6s\353\351&:\322?CU\336=\247\321\313?\024\340e\332#\264\270?\264Gh1*%\262? \311\370\372\354\254\263?\357o\000\312\214\024\266?(\230\230b\357\003\252?\3474z\213\266o\313?E\030\313\205tI\320?\200a\366\243\346;\272?\326\t\301_\316p\264?\367\313\031\216r\274\266?\257\231[O7\321\261?T\r\021\306r!\335?\022\211_i*\212\310?\277m\016\n&\246\310?\354\263\263N\010\376\322?\374\257\231[O7\301?q\215C\351\367f\303?%w\005\335\337\000\304?\326\t\301_\316p\324?&pe\020\227\237\342?\236uB\360\2273\274?>\014\030f?j\336?b\3000\373Q\363\255?\327\323Mt\344I\312?\354\342\206m\251\303\253?\246\242\210\225\334\025\324?N>q^p\312\306?\377\320,\341^:\307?K\035\336\330`\307\320?\361\365\331Y\'\004\337?`,\027\322%A\302?h\373\2669(\230\270?\027\234\262U\250\312\333?\036<\177\236\t\\\211?o6=x\376<\263?\177\245\251(b%\327?\321\316:!\370\313\231?\326\t\301_\316p\304?i\226p/\235\253\325?\032_\237\235uB\320?\200a\366\243\346;\212?\320\004\256\014\342\362\323?P\313\352\272S\033\301?\332\201ZV\327\235\312?\361\374y&pe\320?\025{\037\320\230\307\325?c\203\035C\037k\302?\267h\373\2669(\330?J\306\327gg\235\320?O\010\376r\206\243\254?E\254\344\256\240\373\273?o6=x\376<\263?\"]\022$\031_\317?o6=x\376<\263?u\256\326n\007j\311?\024\340e\332#\264\270?\325\253\032\"\214\345\342?\242#O\322\212\207\314?C\254\344\256\240\373\233?\034\345x-\0202\311?\035\257\005B&\013\317?\242#O\322\212\207\314?\347\005\247l\025\252\322?9\201+\203\270\374d?\276\243\201\365\017\315\302?\t-F\245D\342\307?;P\313\352\272S\253?\246\321[\264}\333\234?\20776\3301\364\321?\354\342\206m\251\303\273?\300\304\024{\037\320\270?\213\275\017h\314\343\252?\316A\301\304\024{\257?+\350\376\006\240\314\350?\006q\371)\300\313\324?u\177\003Pf\244\320?\037<\177\236\t\\\311?&A\222\361\365\331\311?\376\232\271\365t\023\275?\\~\n\3602\355\321?\252\353NmD}\221?\310\377\232\271\365t\243?D\342W\232\212\"\346?\004\265\254\256;\265\241?\236\002\274L{\204\266?z\\\343P\372\275\311?\376\232\271\365t\023\275?\224\031),\262\213\273?j\034J\2777\233\236?\027m\3376\007\005\243?\370\313\031\216r\274\226?s!]\022$\031\317?\333\267\315A\301\304\264?\323[\264}\333\034\204?t\344IZ\361\220\263?\356o\000\312\214\024\306?2\364\261&\325\253\252?\310\377\232\271\365t\303?\365t\023\035y\222\306?K\035\336\330`\307\300?m6=x\376<s?\301\225A\\~\n\320?\004\032\363\270\306\241\324?J\306\327gg\235\320?,|\0300\314~\304?(\316\013N\331*\324?\337/g8\312\361\312?\262&\325\253\032\"\354?J\306\327gg\235\260?\361a\3000\373Q\323?\326\244zUC\204\321?\003\265\254\256;\265\261?%w\005\335\337\000\264?\333\267\315A\301\304\264? <\177\236\t\\\231?\\\022$\031_\237\335?\023S\354}@c\256?\tc\271\220.\t\322?\305\345\247\000/\323\256?\374y&pe\020\267?W\320\375\r@\231\301?\310\377\232\271\365t\243?\271\365t\023\035y\262?\350\231\300\225A\\\336?(\230\230b\357\003\252?\233\036<\177\236\t\314?\213J\211\304\2574\245?u\256\326n\007j\311?\201a\366\243\346;\252?\253P\225w\317i\324?\362\035\r\254\177h\266?\204\270\374\024\340e\312?\305\345\247\000/\323\256?\'\013\037\006\014\263\257?\342\274\340\224\255B\305?\033\033\354\030\372X\303?\357o\000\312\214\024\266?j\2100\226\013\351\262?~\324|G\003\353\237?\373X\223\352U\r\261?\327\323Mt\344I\312?\253\353NmD}\241?\034\257\005B&\013\277?\022\277\322T\024\261\302?\363S\200\227i\217\300?\252\353NmD}\261?O\010\376r\206\243\254?\017h\314\343\032\207\302?4\201+\203\270\374\224?\244\260\310.n\330\306?\254\177h\226p/\315?\267h\373\2669(\310?n\251\303\033\033\354\310?\001^\246=B\213\301?\226\246\242\210\225\334\325?\030\001\371_3\267\316?\224\031),\262\213\253?Y\361\220\223O\234\267?3\034\345x-\020\342?\316A\301\304\024{\177?\302\026\010\231,|h?# \377k\346\326\303?\225\334\025t\177\003\300?B\213Q)\221\370\265? \311\370\372\354\254\263? \311\370\372\354\254\223?\257\326n\007jY\315?Z\361\220\223O\234\247?\241\2175\251^\325\240?\214J\211\304\2574\265?\026m\3376\007\005\303?\361\374y&pe\320?\027\322%A\222\361\325?\002\362\277fn=\315?\265Gh1*%\242?\260\231[O7\321\301?\333\267\315A\301\304\264?G\324\027\001\371_\323?\271\211\216<I+\236? \311\370\372\354\254\263? \311\370\372\354\254\263?\032\216r\274\026\010\311?\212\216<I+\036\322?\367\313\031\216r\274\266?\202a\366\243\346;\232?\274\026\010\231,|\250?\303Q\216\327\002!\263?%w\005\335\337\000\264?\336\330`\307\320\307\272?\003I\306\327gg\335?!.?\005x\231\326?\037<\177\236\t\\\251?\323\357\315\246\007\317\317?a\3000\373Q\363\335?^\325\020a,\027\302?\031\363\270\306\241\364\333?\310\377\232\271\365t\243?\372\" \377k\346\306?\001(3RXd\267?n\251\303\033\033\354\250?\352\213\200\374\257\231\313?\021\374\345\014G9\316?\354NmD}\021\260?S\"\361+ME\301?\001(3RXd\267?\253\177h\226p/\275?E\030\313\205tI\320?,|\0300\314~\324?\360\374y&pe\300?%\264\030\225\022\211\317?\321[\264}\333\034\264?\267h\373\2669(\270?vxc\203\035C\257?\354NmD}\021\320?\222\031),\262\213\233?\006\014\263\0375\337\321?\314\255\247\233\350\310\263?\263\272\356\324F\324\247?~@c\036\3278\264?P\313\352\272S\033\301?\005\326?4K\270\267?v;P\313\352\272\303?\274\026\010\231,|\250?\214J\211\304\2574\305?l\034J\2777\233\256?v\326\t\301_\316\320?Nt\344IZ\361\320?\004\265\254\256;\265\301?S\20776\3301\324?~\324|G\003\353\237?dM\252W5D\330?)b%w\005\335\317?F9^\013\204L\246?\370\313\031\216r\274\246?\207\234|\342\274\340\264?\\\022$\031_\237\275?\033\033\354\030\372X\263?\372\" \377k\346\306?n\251\303\033\033\354\250?\361\306\006;\206>\326?1\305\336\0074\346\321?\276\243\201\365\017\315\302?J\306\327gg\235\260?Q_\004\344\177\315\314?\244\346;\032X\377\300?\320\316:!\370\313\251?\331`\307\320\307\232\304?\340e\332#\264\030\305?\345B\272$H2\356?\225\246\242\210\225\334\245?\237\002\274L{\204\246?G\324\027\001\371_\323?\325|G\003\353\037\332?\022S\354}@c\276?\201a\366\243\346;\252?D\030\313\205tI\300?/n\330\226:\274\321?\354\342\206m\251\303\313?/\323\036\241\305\250\264?\352\301\363\347\231\300\325?s!]\022$\031\317?\235\253\265\333\201Z\306?\345\023\347\005\247l\225?\307<\256q(\375\316?&A\222\361\365\331\311?\252\353NmD}\261?O\010\376r\206\243\274?\266\333\201ZV\327\315?O\010\376r\206\243\274?\004\265\254\256;\265\301?f\332#\264\030\225\242?%\022\277\322T\024\321?CU\336=\247\321\313?\322[\264}\333\034\244?\331`\307\320\307\232\304?Z\'\004\1779\303\301?CU\336=\247\321\333?\263\272\356\324F\324\247? \311\370\372\354\254\263?CU\336=\247\321\313?\026\252\362\3569\215\316?\340e\332#\264\030\265?Wd\0277lK\235?\244\025\0179\371\304\331?\016\n&\246\330\373\340?\263\272\356\324F\324\307?\247\321[\264}\333\274?T\266\nUy\367\274?K\035\336\330`\307\320?\236\002\274L{\204\266?\271\365t\023\035y\302?Yd\0277lK\255?`,\027\322%A\262?\003\265\254\256;\265\261?R\"\361+ME\261?\224\031),\262\213\253?\265Gh1*%\242?~\324|G\003\353\237?~\333\034\024LL\321?\242\364{\263\351\301\323?\267\236n\242#O\322?\207\001\303\354G\315\327?\264\333\201ZV\327\275?\364\347\231\300\225A\314?\251^\325\020a,\307?\344\206m\251\303\033\233?\262\360a\3000\373\301?\006\326?4K\270\307?\272\277\001(3R\330?;P\313\352\272S\273?P\225w\317i\364\306?%\013\037\006\014\263\277?\317\004\256\014\342\362\303?@\376\327\314\255\247\273?\371\225\246\242\210\225\314?\\\022$\031_\237\275?\321[\264}\333\034\304?\253\353NmD}\301?{\263\351\301\363\347\271?W\320\375\r@\231\301?W\320\375\r@\231\261?\276\243\201\365\017\315\302?\310\377\232\271\365t\263?Z\'\004\1779\303\301?(\316\013N\331*\304?\273\211\216<I+\316?\271\211\216<I+\336?\252\353NmD}\261?Nt\344IZ\361\340?`,\027\322%A\302?\256BU\336=\247\301?\317\316:!\370\313\271?o\312V\241*\357\276?\366t\023\035y\222\326?\366\252\206\010c\271\260?txc\203\035C\277?^\237\235uB\360\267?\277fn=\335D\347?4\201+\203\270\374\224?\276\243\201\365\017\315\222?\022\277\322T\024\261\262?Nt\344IZ\361\300?b\3000\373Q\363\315?\207\234|\342\274\340\304?Y\361\220\223O\234\267?\262\272\356\324F\324\267?\2303\034\345x-\300?\354\342\206m\251\303\253?\310\377\232\271\365t\263?\001(3RXd\267?\250^\325\020a,\267?\361Z d\262\360\341?\262\360a\3000\373\341?o\312V\241*\357\276?\026\252\362\3569\215\316?6\242\276\010\310\377\272?!\223\205\017\003\206\311?\212\275\017h\314\343\272?F\236\244\025\0179\331?\230\230b\357\003\032\343?y\222V<\344\344\263?\207\234|\342\274\340\264?y\222V<\344\344\263?+\357\236\323\350-\312?P\313\352\272S\033\321?D\342W\232\212\"\306?\n\272\277\001(3\302?\236uB\360\2273\254?\374C\263\204{\351\334?\354\342\206m\251\303\253?\321[\264}\333\034\264?"
      }
    }
  }
}
node {
  name: "normalize_element/component_4"
  op: "Const"
  device: "/device:CPU:0"
  attr {
    key: "_output_shapes"
    value {
      list {
        shape {
          dim {
            size: 537
          }
        }
      }
    }
  }
  attr {
    key: "dtype"
    value {
      type: DT_DOUBLE
    }
  }
  attr {
    key: "value"
    value {
      tensor {
        dtype: DT_DOUBLE
        tensor_shape {
          dim {
            size: 537
          }
        }
        tensor_content: "Ym\375\355\201\215\336?\364\256\310|i\342\340?\315\227&\016c\265\345?I\001\t?\271\020\345?\263\3439\225\024\220\340?\004\033\275+2_\332?g\320\262\3439\225\344?\242n\006-;\236\343?\257\310|i\3420\346?\205\237\\\210\272\031\344?q\030\253\255\277=\340?\213\314\227&\016c\345?\271\020u3h\331\341?Ym\375\355\201\215\336?~r!\352f\320\342?\245\200\204\237\\\210\352?xE\346K\023\207\341?\030\253\255\277=\260\341?\225\024\220\360\223\013\341?Ym\375\355\201\215\336?\000\000\000\000\000\000\000\000\323\304a\254\266\376\346?q\030\253\255\277=\340?<\247\222\002\022~\342?2_\2328\214\325\346?\335\014Zv<\247\342?%\005$\374\344B\344?\375\355\201\215\336\025\331?_\2328\214\325\326\337?\323\304a\254\266\376\346?g\320\262\3439\225\344?\311|i\3420V\333?L\023\207\261\332\372\333?\225\024\220\360\223\013\341?\320\262\3439\225\024\340?\3449\225\024\220\360\343?Ym\375\355\201\215\336??\271\020u3h\331?6zWd\2764\341?\021u3h\331\361\334?\311|i\3420V\333?\201\204\237\\\210\272\351?\302O.D\335\014\352?\302O.D\335\014\332?6zWd\2764\341?6zWd\2764\341?t*) \341\'\347?\234A\313\216\347T\342?,2_\2328\214\345?\306j\353o\017l\344?\021u3h\331\361\354?\207\261\332\372\333\003\353?i\3420V[\177\353?\225\024\220\360\223\013\341?`\243wE\346K\343?}i\3420V[\357?\025\220\360\223\013Q\347?\364\256\310|i\342\340?\323\304a\254\266\376\346?\201\204\237\\\210\272\331?zWd\2764q\330?\0106zWd\276\344?\nH\370\311\205\250\333?\0106zWd\276\344?\234A\313\216\347T\342?~r!\352f\320\342?\270\0076zWd\356?\320\262\3439\225\024\340?%\005$\374\344B\344?\271\020u3h\331\341?t*) \341\'\347?\270\0076zWd\356?q\030\253\255\277=\340?\320\262\3439\225\024\340?\265\365\267\0076z\327?\000\000\000\000\000\000\000\000\300=\260\321\273\"\343?\027\242n\006-;\336?\205\237\\\210\272\031\344?\271\020u3h\331\341?\036\317\251\244\200\204\357??\271\020u3h\351?\334\003\033\275+2\337?\001\t?\271\020u\343?\327\337\036\330\350]\341?\331\361\234J\nH\350?\263\3439\225\024\220\340?_\2328\214\325\326\337?~r!\352f\320\342?,2_\2328\214\345?\213\314\227&\016c\345?\021u3h\331\361\354?\234A\313\216\347T\342?\327\337\036\330\350]\341?\221\371\322\304a\254\346?\027\242n\006-;\336?_\2328\214\325\326\337?\033\275+2_\232\350?\000\000\000\000\000\000\000\000\022~r!\352f\340?TI\001\t?\271\340?Ym\375\355\201\215\336?2_\2328\214\325\346?xE\346K\023\207\341?\327\337\036\330\350]\341?\262\332\372\333\003\033\355?m\375\355\201\215\336\345?\225\024\220\360\223\013\341?\375\355\201\215\336\025\331?\216\336\025\231/M\334?g\320\262\3439\225\344?\327\337\036\330\350]\341?\004\033\275+2_\352?\367\300F\357\212\314\347?Ym\375\355\201\215\356?\302O.D\335\014\332?m\375\355\201\215\336\325?\021u3h\331\361\334?\234A\313\216\347T\342?\3449\225\024\220\360\343?\3449\225\024\220\360\343?\2764q\030\253\255\357?\326\326\337\036\330\350\355?\306j\353o\017l\344?R@\302O.D\335?\225\024\220\360\223\013\341?<\247\222\002\022~\342?\242n\006-;\236\343?\274\"\363\245\211\303\350?\352f\320\262\3439\345?\253\255\277=\260\321\353?(\027\242n\006-\353?%\005$\374\344B\344?\022~r!\352f\340?6zWd\2764\341?\016c\265\365\267\007\346?\201\204\237\\\210\272\331?\300=\260\321\273\"\343?\265\365\267\0076z\347?\000\000\000\000\000\000\000\000\037\330\350]\221\371\342?\027\242n\006-;\356?\221\371\322\304a\254\346??\271\020u3h\351?\326\326\337\036\330\350\335?\236SI\001\t?\351?t*) \341\'\347?\364\256\310|i\342\340?\213\314\227&\016c\345?<\247\222\002\022~\342?c\265\365\267\0076\352?\021u3h\331\361\354?t*) \341\'\347?\221\371\322\304a\254\346?<\247\222\002\022~\342?\251\233A\313\216\347\344?9\214\325\326\337\036\350?\004\033\275+2_\332?~r!\352f\320\342?\022~r!\352f\340?\021u3h\331\361\334?\373\333\003\033\275+\342?L\023\207\261\332\372\353?\274\"\363\245\211\303\350?\334\003\033\275+2\357?R@\302O.D\335?E\346K\023\207\261\352?\361\223\013Q7\203\346?C\324\315\240e\307\343?\300=\260\321\273\"\343?Zv<\247\222\002\342?\021u3h\331\361\334?\326\326\337\036\330\350\335?\327\337\036\330\350]\341?\271\020u3h\331\341?\225\024\220\360\223\013\341?;\236SI\001\t\357?\205\237\\\210\272\031\344?\0106zWd\276\344?<\247\222\002\022~\342?L\023\207\261\332\372\333?\352f\320\262\3439\345?]\210\272\031\264\354\350?\320\262\3439\225\024\340?v<\247\222\002\022\356?P.D\335\014Z\346?q\030\253\255\277=\340?\2764q\030\253\255\357?`\243wE\346K\343?\021u3h\331\361\334?\205\237\\\210\272\031\344?\327\337\036\330\350]\341?\271\020u3h\331\341?\021u3h\331\361\334?\251\233A\313\216\347\344?\224\013Q7\203\226\355?\320\262\3439\225\024\340?g\320\262\3439\225\344?\334\003\033\275+2\337?\335\014Zv<\247\342?\242n\006-;\236\343?\271\020u3h\331\341?\027\242n\006-;\356?`\243wE\346K\343?\334\003\033\275+2\337?Ym\375\355\201\215\336?_\2328\214\325\326\337?\300=\260\321\273\"\343?zWd\2764q\330?\205\237\\\210\272\031\344??\271\020u3h\331?\036\317\251\244\200\204\357?\004\033\275+2_\332?\320\262\3439\225\024\340?6zWd\2764\341?\300=\260\321\273\"\343?\265\365\267\0076z\347?6zWd\2764\341?\251\233A\313\216\347\344?\3449\225\024\220\360\343?\373\333\003\033\275+\342?\205\237\\\210\272\031\344?\363\245\211\303Xm\355?\251\233A\313\216\347\324?\271\020u3h\331\341?\265\365\267\0076z\347?L\023\207\261\332\372\353?\334\003\033\275+2\337?2_\2328\214\325\346?L\023\207\261\332\372\333?t*) \341\'\347?%\005$\374\344B\344?\001\t?\271\020u\343?g\320\262\3439\225\344?\234A\313\216\347T\322?Zv<\247\222\002\322?\3449\225\024\220\360\343?\335\014Zv<\247\342?\262\332\372\333\003\033\355?\021u3h\331\361\354?\274\"\363\245\211\303\350?\3449\225\024\220\360\343?,2_\2328\214\345?\037\330\350]\221\371\342?\263\3439\225\024\220\340?\361\223\013Q7\203\346?\030\253\255\277=\260\341?\317\251\244\200\204\237\334?\224\013Q7\203\226\335?\207\261\332\372\333\003\333?_\2328\214\325\326\337?g\320\262\3439\225\344??\271\020u3h\351?Ym\375\355\201\215\336?\004\033\275+2_\352?!\352f\320\262\343\351?\224\013Q7\203\226\335?m\375\355\201\215\336\345?c\265\365\267\0076\352?L\023\207\261\332\372\333?V[\177{`\243\347?\224\013Q7\203\226\335?2_\2328\214\325\346?V[\177{`\243\347?\263\3439\225\024\220\340?V[\177{`\243\347?~r!\352f\320\342?\022~r!\352f\340?xE\346K\023\207\341?p\017l\364\256\310\354?_\2328\214\325\326\337?\242n\006-;\236\343?\274\"\363\245\211\303\350?\253\255\277=\260\321\353?~r!\352f\320\342?`\243wE\346K\343?p\017l\364\256\310\354?]\210\272\031\264\354\350?\037\330\350]\221\371\342?\251\233A\313\216\347\344?\311|i\3420V\333?`\243wE\346K\343?Zv<\247\222\002\342?\027\242n\006-;\336?xE\346K\023\207\341?\234A\313\216\347T\342?\022~r!\352f\340?\234A\313\216\347T\342?\234A\313\216\347T\342?\375\355\201\215\336\025\351?\364\256\310|i\342\340?\207\261\332\372\333\003\333?Zv<\247\222\002\342?]\210\272\031\264\354\350?q\030\253\255\277=\340?\021u3h\331\361\334?\302O.D\335\014\332?\027\242n\006-;\336?\0106zWd\276\344?_\2328\214\325\326\337?\216\336\025\231/M\354?\234A\313\216\347T\342?t*) \341\'\327?~r!\352f\320\342?\302O.D\335\014\352?R@\302O.D\335?\317\251\244\200\204\237\334?\2764q\030\253\255\357?\021u3h\331\361\334?\257\310|i\3420\346?R@\302O.D\335?\nH\370\311\205\250\333?<\247\222\002\022~\342?\326\326\337\036\330\350\335?\263\3439\225\024\220\340?\335\014Zv<\247\342?Ym\375\355\201\215\336?%\005$\374\344B\344?\257\310|i\3420\346?m\375\355\201\215\336\345?\364\256\310|i\342\340?m\375\355\201\215\336\345?\335\014Zv<\247\342?_\2328\214\325\326\337?\225\024\220\360\223\013\341?\234A\313\216\347T\322?\224\013Q7\203\226\335?\0106zWd\276\344?\331\361\234J\nH\350?_\2328\214\325\326\337?\216\336\025\231/M\334?\236SI\001\t?\351?\262\332\372\333\003\033\355?\352f\320\262\3439\345?q\030\253\255\277=\340?\327\337\036\330\350]\341?\225\024\220\360\223\013\341?6zWd\2764\341?\327\337\036\330\350]\341?g\320\262\3439\225\344?Ym\375\355\201\215\336?6zWd\2764\341?\265\365\267\0076z\327?\327\337\036\330\350]\341?\334\003\033\275+2\337?\242n\006-;\236\343?\253\255\277=\260\321\353?\205\237\\\210\272\031\344?\364\256\310|i\342\340?m\375\355\201\215\336\345?\271\020u3h\331\341?\2328\214\325\326\337\336?_\2328\214\325\326\337?Zv<\247\222\002\342?\251\233A\313\216\347\344?\216\336\025\231/M\354?\207\261\332\372\333\003\353?,2_\2328\214\325?\335\014Zv<\247\342?\033\275+2_\232\350?`\243wE\346K\343?g\320\262\3439\225\344?\224\013Q7\203\226\335?E\346K\023\207\261\332?\030\253\255\277=\260\341?\317\251\244\200\204\237\334??\271\020u3h\331?\245\200\204\237\\\210\352?\364\256\310|i\342\340?\242n\006-;\236\343?\225\024\220\360\223\013\341?R@\302O.D\355?\022~r!\352f\340?\361\223\013Q7\203\346?\216\336\025\231/M\334?;\236SI\001\t\357?\213\314\227&\016c\345?\036\317\251\244\200\204\337?\205\237\\\210\272\031\344?\320\262\3439\225\024\340?\224\013Q7\203\226\335?\234A\313\216\347T\342?\300=\260\321\273\"\343?\335\014Zv<\247\342?9\214\325\326\337\036\330?\016c\265\365\267\007\346??\271\020u3h\351?\0106zWd\276\344?\306j\353o\017l\344?~r!\352f\320\342?\334\003\033\275+2\337?\037\330\350]\221\371\342?\030\253\255\277=\260\341?P.D\335\014Z\346?c\265\365\267\0076\352?\205\237\\\210\272\031\344?\263\3439\225\024\220\340?\320\262\3439\225\024\340?\022~r!\352f\340?\302O.D\335\014\352?C\324\315\240e\307\343?\230&\016c\265\365\347?t*) \341\'\347?_\2328\214\325\326\337?R@\302O.D\335?\323\304a\254\266\376\346?`\243wE\346K\343?\216\336\025\231/M\334?\375\355\201\215\336\025\351?\036\317\251\244\200\204\357?I\001\t?\271\020\345?I\001\t?\271\020\345?`\243wE\346K\343?\205\237\\\210\272\031\344?\016c\265\365\267\007\346?V[\177{`\243\347?6zWd\2764\341?\207\261\332\372\333\003\353?v<\247\222\002\022\356?\326\326\337\036\330\350\335?\036\317\251\244\200\204\337?<\247\222\002\022~\342?\000\000\000\000\000\000\000\0002_\2328\214\325\326?\216\336\025\231/M\334?\373\333\003\033\275+\342?\2328\214\325\326\337\336?\334\003\033\275+2\337?\001\t?\271\020u\343?2_\2328\214\325\346?\334\003\033\275+2\357?\375\355\201\215\336\025\351?\2328\214\325\326\337\336?E\346K\023\207\261\332?E\346K\023\207\261\352?\352f\320\262\3439\345?}i\3420V[\357?\0106zWd\276\344?\216\336\025\231/M\314?\016c\265\365\267\007\346?p\017l\364\256\310\354?~r!\352f\320\342?\302O.D\335\014\332?m\375\355\201\215\336\325?\234A\313\216\347T\342?E\346K\023\207\261\352?_\2328\214\325\326\337?\021u3h\331\361\354?_\2328\214\325\326\337?\326\326\337\036\330\350\335?g\320\262\3439\225\344?xE\346K\023\207\341?\216\336\025\231/M\334?<\247\222\002\022~\342?\331\361\234J\nH\350?\0106zWd\276\344?2_\2328\214\325\326?\355xN%\005$\354?\001\t?\271\020u\343?\265\365\267\0076z\347?\257\310|i\3420\346?\022~r!\352f\340?\3449\225\024\220\360\343?\016c\265\365\267\007\346?\364\256\310|i\342\340?%\005$\374\344B\344?Ym\375\355\201\215\336?\320\262\3439\225\024\340?\311|i\3420V\333?\027\242n\006-;\336?_\2328\214\325\326\357?\373\333\003\033\275+\342?\271\020u3h\331\341?\242n\006-;\236\343?\207\261\332\372\333\003\333?\262\332\372\333\003\033\355?\320\262\3439\225\024\340?\3449\225\024\220\360\343?C\324\315\240e\307\343?\317\251\244\200\204\237\354?R@\302O.D\335?%\005$\374\344B\344?R@\302O.D\335?\270\0076zWd\356?Zv<\247\222\002\342?\327\337\036\330\350]\341?\364\256\310|i\342\340?2_\2328\214\325\326?\367\300F\357\212\314\347?\311|i\3420V\353?\346K\023\207\261\332\352?\025\220\360\223\013Q\347?m\375\355\201\215\336\345?\2328\214\325\326\337\336?\300=\260\321\273\"\343?_\2328\214\325\326\337?L\023\207\261\332\372\333?\251\233A\313\216\347\344?P.D\335\014Z\346?\037\330\350]\221\371\342?\016c\265\365\267\007\346?\302O.D\335\014\352?\207\261\332\372\333\003\333?\265\365\267\0076z\347?\234A\313\216\347T\342?\205\237\\\210\272\031\344?\021u3h\331\361\334?_\2328\214\325\326\337?\373\333\003\033\275+\342?,2_\2328\214\345?\331\361\234J\nH\350?\225\024\220\360\223\013\341?C\324\315\240e\307\343?\300=\260\321\273\"\343?\323\304a\254\266\376\346?\317\251\244\200\204\237\334?\242n\006-;\236\343?g\320\262\3439\225\344?\000\000\000\000\000\000\360?\253\255\277=\260\321\353?\025\220\360\223\013Q\347?\242n\006-;\236\343?\207\261\332\372\333\003\333?\320\262\3439\225\024\340?\367\300F\357\212\314\347?\037\330\350]\221\371\342?Zv<\247\222\002\342?\367\300F\357\212\314\327?\271\020u3h\331\341?\257\310|i\3420\346?%\005$\374\344B\344?\242n\006-;\236\343?P.D\335\014Z\346?\2328\214\325\326\337\336?q\030\253\255\277=\340?\221\371\322\304a\254\346?\205\237\\\210\272\031\344?"
      }
    }
  }
}
node {
  name: "normalize_element/component_5"
  op: "Const"
  device: "/device:CPU:0"
  attr {
    key: "_output_shapes"
    value {
      list {
        shape {
          dim {
            size: 537
          }
        }
      }
    }
  }
  attr {
    key: "dtype"
    value {
      type: DT_DOUBLE
    }
  }
  attr {
    key: "value"
    value {
      tensor {
        dtype: DT_DOUBLE
        tensor_shape {
          dim {
            size: 537
          }
        }
        tensor_content: "\361>\250\006\003\215\261?\215\021e\377\026\226\330?\366oa\211\233\351\322?\272k\002\244\247\035\311?\272k\002\244\247\035\271?\233\000\351iGf\301?\000\000\000\000\000\000\000\000^\374\211\204S\232\307?\000\000\000\000\000\000\000\000\000\000\000\000\000\000\000\000\000\000\000\000\000\000\000\000\000\000\000\000\000\000\000\000\000\000\000\000\000\000\000\000\000\000\000\000\000\000\000\000\000\000\000\000\000\000\000\000\315\213?\221pJ\323?I8\245y\361\'\302?\000\000\000\000\000\000\000\000\257\t\220\236vd\306?m\324w6\352;\313?\305\315t\251\330\326\233?\000\000\000\000\000\000\000\000{\303\373\240\032\014\324?\000\000\000\000\000\000\000\000\310C\360U>\277\314?i^\374\211\204S\272?\000\000\000\000\000\000\000\000\000\000\000\000\000\000\000\000\000\000\000\000\000\000\000\000\010\276\312\347\227s\327?\355\310,Z\235\244\300?\000\000\000\000\000\000\000\000\000\000\000\000\000\000\000\000\000\000\000\000\000\000\000\000\000\000\000\000\000\000\000\000z\361\'\022Ni\336?\177\"\341\224\346\305\277?\000\000\000\000\000\000\000\000\000\000\000\000\000\000\000\000\000\000\000\000\000\000\000\000\000\000\000\000\000\000\000\000\277\234\273&@z\312?\000\000\000\000\000\000\000\000t\300n\217\265\014\255?\016\357\203j0\320\270?\000\000\000\000\000\000\000\000\000\000\000\000\000\000\000\000\355\310,Z\235\244\300?\330\355\261\226\241\003\326?;I!\017\301W\331?m\324w6\352;\273?\000\000\000\000\000\000\000\000I8\245y\361\'\322?\000\000\000\000\000\000\000\000\000\000\000\000\000\000\000\000\000\000\000\000\000\000\000\000\000\000\000\000\000\000\000\000\000\000\000\000\000\000\000\000\000\000\000\000\000\000\000\000\000\000\000\000\000\000\000\000\000\000\000\000\000\000\000\000\244\247\035\231E\253\303?\244\247\035\231E\253\263?\010\276\312\347\227s\307?\000\000\000\000\000\000\000\000\000\000\000\000\000\000\000\000\000\000\000\000\000\000\000\000\000\000\000\000\000\000\000\000[\206\016\330\355\261\266?\000\000\000\000\000\000\000\000\3262t\300n\217\325?\215\021e\377\026\226\330?\000\000\000\000\000\000\000\000\377\026\226\270\231.\265?\000\000\000\000\000\000\000\000\000\000\000\000\000\000\000\000\000\000\000\000\000\000\000\000\000\000\000\000\000\000\000\000\000\000\000\000\000\000\000\000\000\000\000\000\000\000\000\000\000\000\000\000\000\000\000\000\000\000\000\000\000\000\000\000\016\357\203j0\320\270?\257\t\220\236vd\266?\000\000\000\000\000\000\000\000\177\"\341\224\346\305\317?\007\003\215\021e\377\306?\025\333z\303\373\240\252?\253\223\024\362\020|\265?\000\000\000\000\000\000\000\000\377\026\226\270\231.\305?\000\000\000\000\000\000\000\000\000\000\000\000\000\000\000\000\000\000\000\000\000\000\000\000\000\000\000\000\000\000\000\000\233\000\351iGf\301?\272k\002\244\247\035\271?4F\224\375[X\342?\000\000\000\000\000\000\000\000^\374\211\204S\232\267?\361>\250\006\003\215\301?\007\003\215\021e\377\246?I8\245y\361\'\342?E\302)\315\213?\301?\231E\253\223\024\362\260?t\300n\217\265\014\315?\355\310,Z\235\244\300?R\337\331\250\357l\304?\000\000\000\000\000\000\000\000x6\352;\033\365\275?o\217\265\014\035\260\313?[\206\016\330\355\261\266?\000\000\000\000\000\000\000\000\000\000\000\000\000\000\000\000\000\000\000\000\000\000\000\000P$\234\322\274\370\263?\314\271k\002\244\247\255?\000\000\000\000\000\000\000\000\000\000\000\000\000\000\000\000\000\000\000\000\000\000\000\000\000\000\000\000\000\000\000\000qJ\363\342O$\354?\304\344\nbr\005\321?\010\276\312\347\227s\307?\000\000\000\000\000\000\000\000\000\000\000\000\000\000\000\000\377\026\226\270\231.\305?\225\317/\347\256\t\300?\253\223\024\362\020|\325?\000\000\000\000\000\000\000\000\000\000\000\000\000\000\000\000\366oa\211\233\351\302?\025\333z\303\373\240\232?\000\000\000\000\000\000\000\000\000\000\000\000\000\000\000\000\257\t\220\236vd\306?\000\000\000\000\000\000\000\000\022e\377\026\226\270\311?\000\000\000\000\000\000\000\000\000\000\000\000\000\000\000\000\301W\371\374r\356\272?\033\0144F\224\375\313?\000\000\000\000\000\000\000\000\177\"\341\224\346\305\317?\000\000\000\000\000\000\000\000\355\310,Z\235\244\340?\377\026\226\270\231.\305?\253\223\024\362\020|\305?\000\000\000\000\000\000\000\000\000\000\000\000\000\000\000\000\000\000\000\000\000\000\000\000\231E\253\223\024\362\220?m\324w6\352;\313?\000\000\000\000\000\000\000\000\000\000\000\000\000\000\000\000\000\000\000\000\000\000\000\000\000\000\000\000\000\000\000\000\000\000\000\000\000\000\000\000\000\000\000\000\000\000\000\000\000\000\000\000\000\000\000\000\000\000\000\000\000\000\000\000\000\000\000\000\000\000\000\000 =\355\310,Z\315?$\263hu\222B\276?\000\000\000\000\000\000\000\000\000\000\000\000\000\000\000\000\000\000\000\000\000\000\000\000\000\000\000\000\000\000\000\000\000\000\000\000\000\000\000\000L\256 &W\020\263?\000\000\000\000\000\000\000\000\275\341}P\r\006\252?\266\365\206\367A5\310?L\256 &W\020\263?\000\000\000\000\000\000\000\000\000\000\000\000\000\000\000\000\000\000\000\000\000\000\000\000\365\264#\263hu\302?\306\237H8\245y\321?t\300n\217\265\014\275?\000\000\000\000\000\000\000\000\000\000\000\000\000\000\000\000t\300n\217\265\014\275?\314\271k\002\244\247\315?\314\271k\002\244\247\335?\000\000\000\000\000\000\000\000\000\000\000\000\000\000\000\000\000\000\000\000\000\000\000\000\177\"\341\224\346\305\277?\000\000\000\000\000\000\000\000\233\000\351iGf\301?\244\247\035\231E\253\303?^\374\211\204S\232\267?\000\000\000\000\000\000\000\000\022e\377\026\226\270\311?\000\000\000\000\000\000\000\000\305\315t\251\330\326\313?\000\000\000\000\000\000\000\000\000\000\000\000\000\000\000\000\177\"\341\224\346\305\277?\000\000\000\000\000\000\000\000\000\000\000\000\000\000\000\000\000\000\000\000\000\000\000\000R\337\331\250\357l\304?\031Q\366oa\211\273?\003\215\021e\377\026\266?\000\000\000\000\000\000\000\000\355\310,Z\235\244\320?\000\000\000\000\000\000\000\000\000\000\000\000\000\000\000\000t\300n\217\265\014\255?\313\320\001\273=\326\322?\310C\360U>\277\274?\355\310,Z\235\244\300?\000\000\000\000\000\000\000\000\000\000\000\000\000\000\000\000\000\000\000\000\000\000\000\000\000\000\000\000\000\000\000\000\000\000\000\000\000\000\000\000\000\000\000\000\000\000\000\000\000\000\000\000\000\000\000\000\000\000\000\000\000\000\000\000\000\000\000\000\000\000\000\000\000\000\000\000\000\000\000\000\000\000\000\000\000\000\000\000\000\000\000\000\000\000\000\000I8\245y\361\'\302?$\263hu\222B\276?\370*\237_\316]\263?\000\000\000\000\000\000\000\000R\337\331\250\357l\304?I8\245y\361\'\302?d-C\007\354\366\310?\000\000\000\000\000\000\000\000\000\000\000\000\000\000\000\000m\324w6\352;\253?\244\247\035\231E\253\303?\000\000\000\000\000\000\000\000\315\213?\221pJ\343?\000\000\000\000\000\000\000\000\312\376-,q3\315?[\206\016\330\355\261\346?\244\247\035\231E\253\303?\233\000\351iGf\321?\000\000\000\000\000\000\000\000\000\000\000\000\000\000\000\000$\263hu\222B\276?\034\307q\034\307q\274?\000\000\000\000\000\000\000\000\231E\253\223\024\362\260?\370*\237_\316]\263?\310C\360U>\277\314?\016\357\203j0\320\330?\305\315t\251\330\326\273?\000\000\000\000\000\000\000\000\000\000\000\000\000\000\000\000\000\000\000\000\000\000\000\000R\337\331\250\357l\304?\177\"\341\224\346\305\277?\370*\237_\316]\243?\000\000\000\000\000\000\000\000\016\357\203j0\320\250?\000\000\000\000\000\000\000\000\000\000\000\000\000\000\000\000\016\357\203j0\320\270?.,q3]*\326?\225\317/\347\256\t\260?\000\000\000\000\000\000\000\000R\337\331\250\357l\304?\000\000\000\000\000\000\000\000\266\365\206\367A5\310?\ny\010\276\312\347\307?\377\026\226\270\231.\305?\206\016\330\355\261\226\341?I8\245y\361\'\302?[\206\016\330\355\261\306?\244\247\035\231E\253\303?R\337\331\250\357l\344?\034\307q\034\307q\274?\000\000\000\000\000\000\000\000\000\000\000\000\000\000\000\000$\263hu\222B\316?P$\234\322\274\370\303?\ny\010\276\312\347\267?\361>\250\006\003\215\301?$\263hu\222B\316?\034\307q\034\307q\274?\3262t\300n\217\325?\000\000\000\000\000\000\000\000\010\276\312\347\227s\307?\000\000\000\000\000\000\000\000\225\317/\347\256\t\300?\377\026\226\270\231.\305?\013br\0051\271\342?\000\000\000\000\000\000\000\000\000\000\000\000\000\000\000\000\266\365\206\367A5\250?\007\003\215\021e\377\266?\233\000\351iGf\301?{\254e\350\200\335\256?[\206\016\330\355\261\326?\000\000\000\000\000\000\000\000\000\000\000\000\000\000\000\000\177\"\341\224\346\305\277?\000\000\000\000\000\000\000\000$\263hu\222B\276?$\263hu\222B\236?\022Ni^\374\211\344?AL\256 &W\260?\000\000\000\000\000\000\000\000\177\"\341\224\346\305\317?\000\000\000\000\000\000\000\000\000\000\000\000\000\000\000\000\000\000\000\000\000\000\000\000\000\000\000\000\000\000\000\000m\324w6\352;\313?\000\000\000\000\000\000\000\000\026\255NR\310C\320?\020\252\301@cD\311?{\254e\350\200\335\316?\000\000\000\000\000\000\000\000\000\000\000\000\000\000\000\000\000\000\000\000\000\000\000\000\000\000\000\000\000\000\000\000\363\371\345\3345\001\302?\000\000\000\000\000\000\000\000L\256 &W\020\303?\000\000\000\000\000\000\000\000\000\000\000\000\000\000\000\000\257\t\220\236vd\266?\000\000\000\000\000\000\000\000f\350\200\335\036k\311?\013br\0051\271\342?\000\000\000\000\000\000\000\000m\324w6\352;\273?\000\000\000\000\000\000\000\000d-C\007\354\366\310?t\300n\217\265\014\255?\251\330\326\033\336\007\325? =\355\310,Z\315?\000\000\000\000\000\000\000\000$\263hu\222B\276?\000\000\000\000\000\000\000\000\000\000\000\000\000\000\000\000\000\000\000\000\000\000\000\000\000\000\000\000\000\000\000\000\310Z\206\016\330\355\341?\000\000\000\000\000\000\000\000\000\000\000\000\000\000\000\000\025\333z\303\373\240\272?\031Q\366oa\211\313?\000\000\000\000\000\000\000\000\000\000\000\000\000\000\000\000\000\000\000\000\000\000\000\000\ny\010\276\312\347\267?^\374\211\204S\232\307?\000\000\000\000\000\000\000\000\000\000\000\000\000\000\000\000\000\000\000\000\000\000\000\000\377\026\226\270\231.\305?\000\000\000\000\000\000\000\000\000\000\000\000\000\000\000\000\000\000\000\000\000\000\000\000$\263hu\222B\256?\000\000\000\000\000\000\000\000\257\t\220\236vd\246?\257\t\220\236vd\246?f\350\200\335\036k\311?\034\307q\034\307q\274?\000\000\000\000\000\000\000\000\ny\010\276\312\347\307?\000\000\000\000\000\000\000\000\000\000\000\000\000\000\000\000m\324w6\352;\313?AL\256 &W\260?\361\'\022Ni^\334?\010\276\312\347\227s\307?f\350\200\335\036k\271?\355\310,Z\235\244\300?\231E\253\223\024\362\260?\000\000\000\000\000\000\000\000\000\000\000\000\000\000\000\000\000\000\000\000\000\000\000\000\000\000\000\000\000\000\000\000\000\000\000\000\000\000\000\000\000\000\000\000\000\000\000\000\365\235\215\372\316F\335?\366oa\211\233\351\302?\000\000\000\000\000\000\000\000\225\317/\347\256\t\300?\000\000\000\000\000\000\000\000\000\000\000\000\000\000\000\000\366oa\211\233\351\302?\000\000\000\000\000\000\000\000E\302)\315\213?\301?\000\000\000\000\000\000\000\000t\300n\217\265\014\315?\026\255NR\310C\320?\000\000\000\000\000\000\000\000\000\000\000\000\000\000\000\000\263\177\013K\334L\267?\242\354\337\302\0227\303?E\302)\315\213?\321?AL\256 &W\260?\000\000\000\000\000\000\000\000d-C\007\354\366\330?\231E\253\223\024\362\260?\025\333z\303\373\240\252?\000\000\000\000\000\000\000\000\377\026\226\270\231.\325?\250\006\003\215\021e\337?\000\000\000\000\000\000\000\000\000\000\000\000\000\000\000\000I8\245y\361\'\302?f\350\200\335\036k\311?\000\000\000\000\000\000\000\000\000\000\000\000\000\000\000\000\341\224\346\305\237H\330?}g\243\276\263Q\317?\370*\237_\316]\263?I8\245y\361\'\302?\000\000\000\000\000\000\000\000\000\000\000\000\000\000\000\000\000\000\000\000\000\000\000\000AL\256 &W\260?\000\000\000\000\000\000\000\000\314\271k\002\244\247\255?\377\026\226\270\231.\305?\000\000\000\000\000\000\000\000\000\000\000\000\000\000\000\000\000\000\000\000\000\000\000\000\000\000\000\000\000\000\000\000\314\271k\002\244\247\255?\000\000\000\000\000\000\000\000\000\000\000\000\000\000\000\000\000\000\000\000\000\000\000\000\255NR\310C\360\305?\000\000\000\000\000\000\000\000\000\000\000\000\000\000\000\000\000\000\000\000\000\000\000\000`\267\307Z\206\016\310?\255NR\310C\360\305?E\302)\315\213?\261?P$\234\322\274\370\263?\000\000\000\000\000\000\000\000\277\234\273&@z\312?\034\307q\034\307q\274?\377\026\226\270\231.\265?\000\000\000\000\000\000\000\000W\020\223+\210\311\265?\361>\250\006\003\215\261?Ni^\374\211\204\303?\305\315t\251\330\326\233?\000\000\000\000\000\000\000\000I8\245y\361\'\302?\000\000\000\000\000\000\000\000\000\000\000\000\000\000\000\000\000\000\000\000\000\000\000\000\231E\253\223\024\362\300?\000\000\000\000\000\000\000\000\000\000\000\000\000\000\000\000\177\"\341\224\346\305\277?\026\255NR\310C\320?\000\000\000\000\000\000\000\000\036\202\257\362\371\345\314?\007\003\215\021e\377\306?\025\333z\303\373\240\272?br\0051\271\202\270?\000\000\000\000\000\000\000\000\000\000\000\000\000\000\000\000\376[X\342f\272\324?\000\000\000\000\000\000\000\000\000\000\000\000\000\000\000\000\000\000\000\000\000\000\000\000\007\003\215\021e\377\266?m\324w6\352;\313?\177\"\341\224\346\305\277?\000\000\000\000\000\000\000\000\025\333z\303\373\240\312?\000\000\000\000\000\000\000\000\000\000\000\000\000\000\000\000AL\256 &W\300?\025\333z\303\373\240\272?\000\000\000\000\000\000\360?\034\307q\034\307q\274?\000\000\000\000\000\000\000\000\000\000\000\000\000\000\000\000m\324w6\352;\253?\000\000\000\000\000\000\000\000\000\000\000\000\000\000\000\000W\020\223+\210\311\305?\000\000\000\000\000\000\000\000\000\000\000\000\000\000\000\000\000\000\000\000\000\000\000\000\025\333z\303\373\240\312?W\020\223+\210\311\225?\263\177\013K\334L\267?\000\000\000\000\000\000\000\000\266\365\206\367A5\310?\000\000\000\000\000\000\000\000\000\000\000\000\000\000\000\000\000\000\000\000\000\000\000\000\000\000\000\000\000\000\000\000\000\000\000\000\000\000\000\000\000\000\000\000\000\000\000\000\000\000\000\000\000\000\000\000\355\310,Z\235\244\260?\000\000\000\000\000\000\000\000\022e\377\026\226\270\271?I8\245y\361\'\262?\000\000\000\000\000\000\000\000\000\000\000\000\000\000\000\000\034\307q\034\307q\274?$\263hu\222B\256?\365\264#\263hu\262?\000\000\000\000\000\000\000\000\000\000\000\000\000\000\000\000m\324w6\352;\313?\000\000\000\000\000\000\000\000f\350\200\335\036k\311?\244\247\035\231E\253\303?\355\310,Z\235\244\320?P$\234\322\274\370\263?\253\223\024\362\020|\265?\310Z\206\016\330\355\321?\000\000\000\000\000\000\000\000\277\234\273&@z\312?W\020\223+\210\311\245?\000\000\000\000\000\000\000\000W\020\223+\210\311\305?r\034\307q\034\307\321?$\263hu\222B\316?\377\026\226\270\231.\305?\000\000\000\000\000\000\000\000\000\000\000\000\000\000\000\000\000\000\000\000\000\000\000\000\000\000\000\000\000\000\000\000"
      }
    }
  }
}
node {
  name: "normalize_element/component_6"
  op: "Const"
  device: "/device:CPU:0"
  attr {
    key: "_output_shapes"
    value {
      list {
        shape {
          dim {
            size: 537
          }
        }
      }
    }
  }
  attr {
    key: "dtype"
    value {
      type: DT_DOUBLE
    }
  }
  attr {
    key: "value"
    value {
      tensor {
        dtype: DT_DOUBLE
        tensor_shape {
          dim {
            size: 537
          }
        }
        tensor_content: "\036\036\036\036\036\036\256?\323\322\322\322\322\322\322?\000\000\000\000\000\000\000\000\036\036\036\036\036\036\316?\036\036\036\036\036\036\256?\036\036\036\036\036\036\276?\227\226\226\226\226\226\306?\036\036\036\036\036\036\256?\000\000\000\000\000\000\000\000\000\000\000\000\000\000\000\000\000\000\000\000\000\000\000\000\036\036\036\036\036\036\336?\036\036\036\036\036\036\276?\036\036\036\036\036\036\316?\323\322\322\322\322\322\322?\000\000\000\000\000\000\000\000\036\036\036\036\036\036\256?\036\036\036\036\036\036\336?\000\000\000\000\000\000\000\000\036\036\036\036\036\036\256?\036\036\036\036\036\036\256?\036\036\036\036\036\036\336?\036\036\036\036\036\036\276?\323\322\322\322\322\322\342?ZZZZZZ\332?\036\036\036\036\036\036\316?\036\036\036\036\036\036\256?\227\226\226\226\226\226\306?\036\036\036\036\036\036\256?\036\036\036\036\036\036\256?\036\036\036\036\036\036\256?\227\226\226\226\226\226\326?\227\226\226\226\226\226\306?\227\226\226\226\226\226\346?\036\036\036\036\036\036\276?\361\360\360\360\360\360\340?\000\000\000\000\000\000\000\000\036\036\036\036\036\036\256?\227\226\226\226\226\226\326?\036\036\036\036\036\036\316?\036\036\036\036\036\036\276?ZZZZZZ\332?\227\226\226\226\226\226\326?ZZZZZZ\332?\036\036\036\036\036\036\256?\036\036\036\036\036\036\256?\036\036\036\036\036\036\316?ZZZZZZ\332?\000\000\000\000\000\000\000\000\036\036\036\036\036\036\276?\000\000\000\000\000\000\000\000\323\322\322\322\322\322\342?\361\360\360\360\360\360\340?ZZZZZZ\332?\036\036\036\036\036\036\316?\227\226\226\226\226\226\326?\036\036\036\036\036\036\316?\000\000\000\000\000\000\000\000\323\322\322\322\322\322\322?\227\226\226\226\226\226\326?xxxxxx\350?\000\000\000\000\000\000\000\000\036\036\036\036\036\036\256?\227\226\226\226\226\226\306?\036\036\036\036\036\036\276?\227\226\226\226\226\226\326?\000\000\000\000\000\000\000\000ZZZZZZ\332?\036\036\036\036\036\036\336?\227\226\226\226\226\226\306?\323\322\322\322\322\322\322?\323\322\322\322\322\322\322?\000\000\000\000\000\000\000\000\036\036\036\036\036\036\256?\000\000\000\000\000\000\000\000\036\036\036\036\036\036\256?\036\036\036\036\036\036\276?\000\000\000\000\000\000\000\000\036\036\036\036\036\036\336?\036\036\036\036\036\036\256?ZZZZZZ\332?\036\036\036\036\036\036\276?\036\036\036\036\036\036\256?\036\036\036\036\036\036\256?\227\226\226\226\226\226\306?\036\036\036\036\036\036\336?\227\226\226\226\226\226\306?\036\036\036\036\036\036\276?\036\036\036\036\036\036\276?\036\036\036\036\036\036\316?\036\036\036\036\036\036\256?\036\036\036\036\036\036\256?\227\226\226\226\226\226\326?\036\036\036\036\036\036\276?\036\036\036\036\036\036\316?\000\000\000\000\000\000\000\000\323\322\322\322\322\322\322?\036\036\036\036\036\036\256?\036\036\036\036\036\036\256?\000\000\000\000\000\000\000\000\000\000\000\000\000\000\000\000\036\036\036\036\036\036\256?ZZZZZZ\332?\036\036\036\036\036\036\336?\036\036\036\036\036\036\276?ZZZZZZ\332?<<<<<<\354?\036\036\036\036\036\036\256?\323\322\322\322\322\322\322?\036\036\036\036\036\036\256?\036\036\036\036\036\036\256?\323\322\322\322\322\322\322?\361\360\360\360\360\360\340?\227\226\226\226\226\226\326?\227\226\226\226\226\226\326?\227\226\226\226\226\226\306?\323\322\322\322\322\322\342?\036\036\036\036\036\036\256?\323\322\322\322\322\322\322?\036\036\036\036\036\036\256?\323\322\322\322\322\322\322?\036\036\036\036\036\036\316?\036\036\036\036\036\036\336?\036\036\036\036\036\036\316?\227\226\226\226\226\226\326?xxxxxx\350?\227\226\226\226\226\226\306?\036\036\036\036\036\036\276?\036\036\036\036\036\036\316?\036\036\036\036\036\036\316?\036\036\036\036\036\036\256?\227\226\226\226\226\226\306?\323\322\322\322\322\322\322?\000\000\000\000\000\000\000\000\000\000\000\000\000\000\000\000\000\000\000\000\000\000\000\000\227\226\226\226\226\226\326?\036\036\036\036\036\036\256?\036\036\036\036\036\036\256?\323\322\322\322\322\322\322?\000\000\000\000\000\000\000\000\000\000\000\000\000\000\000\000\227\226\226\226\226\226\306?\323\322\322\322\322\322\322?\036\036\036\036\036\036\256?\036\036\036\036\036\036\276?\036\036\036\036\036\036\316?\000\000\000\000\000\000\000\000\323\322\322\322\322\322\342?\227\226\226\226\226\226\326?\036\036\036\036\036\036\256?\000\000\000\000\000\000\000\000\036\036\036\036\036\036\256?\000\000\000\000\000\000\000\000\036\036\036\036\036\036\276?\323\322\322\322\322\322\322?\227\226\226\226\226\226\306?\227\226\226\226\226\226\306?\036\036\036\036\036\036\316?\036\036\036\036\036\036\256?\036\036\036\036\036\036\276?\000\000\000\000\000\000\000\000\227\226\226\226\226\226\306?\361\360\360\360\360\360\340?ZZZZZZ\332?\036\036\036\036\036\036\336?\227\226\226\226\226\226\326?\227\226\226\226\226\226\346?\000\000\000\000\000\000\000\000\036\036\036\036\036\036\256?\227\226\226\226\226\226\306?\036\036\036\036\036\036\256?\036\036\036\036\036\036\276?\036\036\036\036\036\036\276?\036\036\036\036\036\036\256?\323\322\322\322\322\322\322?\227\226\226\226\226\226\306?\036\036\036\036\036\036\316?\036\036\036\036\036\036\316?\036\036\036\036\036\036\256?\036\036\036\036\036\036\276?\000\000\000\000\000\000\000\000\036\036\036\036\036\036\276?\036\036\036\036\036\036\256?ZZZZZZ\332?\323\322\322\322\322\322\342?\000\000\000\000\000\000\000\000\036\036\036\036\036\036\336?\036\036\036\036\036\036\276?\227\226\226\226\226\226\306?\323\322\322\322\322\322\342?\227\226\226\226\226\226\326?\227\226\226\226\226\226\306?\036\036\036\036\036\036\276?\036\036\036\036\036\036\256?\361\360\360\360\360\360\340?ZZZZZZ\352?\036\036\036\036\036\036\316?\036\036\036\036\036\036\256?\227\226\226\226\226\226\306?\227\226\226\226\226\226\306?\265\264\264\264\264\264\344?\036\036\036\036\036\036\336?\227\226\226\226\226\226\306?ZZZZZZ\332?\036\036\036\036\036\036\256?\036\036\036\036\036\036\276?\036\036\036\036\036\036\256?\036\036\036\036\036\036\316?\227\226\226\226\226\226\326?\036\036\036\036\036\036\256?\036\036\036\036\036\036\256?\036\036\036\036\036\036\256?\000\000\000\000\000\000\000\000\000\000\000\000\000\000\000\000ZZZZZZ\332?\000\000\000\000\000\000\000\000ZZZZZZ\332?\361\360\360\360\360\360\340?\000\000\000\000\000\000\000\000\036\036\036\036\036\036\256?ZZZZZZ\332?\227\226\226\226\226\226\326?\036\036\036\036\036\036\336?\227\226\226\226\226\226\306?\036\036\036\036\036\036\316?\036\036\036\036\036\036\276?\000\000\000\000\000\000\000\000\036\036\036\036\036\036\276?\227\226\226\226\226\226\326?\036\036\036\036\036\036\276?\000\000\000\000\000\000\000\000\000\000\000\000\000\000\000\000\323\322\322\322\322\322\322?\000\000\000\000\000\000\000\000\036\036\036\036\036\036\276?\227\226\226\226\226\226\306?\323\322\322\322\322\322\322?\000\000\000\000\000\000\000\000\000\000\000\000\000\000\000\000\227\226\226\226\226\226\326?\036\036\036\036\036\036\336?\227\226\226\226\226\226\326?\000\000\000\000\000\000\000\000ZZZZZZ\332?\361\360\360\360\360\360\340?\036\036\036\036\036\036\316?\036\036\036\036\036\036\256?\036\036\036\036\036\036\276?\036\036\036\036\036\036\316?\227\226\226\226\226\226\306?\227\226\226\226\226\226\306?\227\226\226\226\226\226\306?\000\000\000\000\000\000\000\000\361\360\360\360\360\360\340?ZZZZZZ\332?\036\036\036\036\036\036\276?ZZZZZZ\332?\227\226\226\226\226\226\306?\036\036\036\036\036\036\256?ZZZZZZ\332?\036\036\036\036\036\036\256?\227\226\226\226\226\226\306?\323\322\322\322\322\322\322?\036\036\036\036\036\036\256?\036\036\036\036\036\036\316?\000\000\000\000\000\000\000\000\361\360\360\360\360\360\340?\036\036\036\036\036\036\256?\000\000\000\000\000\000\000\000\036\036\036\036\036\036\276?\036\036\036\036\036\036\276?\227\226\226\226\226\226\326?\227\226\226\226\226\226\306?\036\036\036\036\036\036\316?\265\264\264\264\264\264\344?\036\036\036\036\036\036\336?\036\036\036\036\036\036\276?\036\036\036\036\036\036\256?\036\036\036\036\036\036\276?\036\036\036\036\036\036\336?\036\036\036\036\036\036\256?\036\036\036\036\036\036\256?ZZZZZZ\332?\036\036\036\036\036\036\256?\036\036\036\036\036\036\256?\227\226\226\226\226\226\306?\000\000\000\000\000\000\000\000\227\226\226\226\226\226\326?\361\360\360\360\360\360\340?\000\000\000\000\000\000\000\000\227\226\226\226\226\226\306?\036\036\036\036\036\036\276?\036\036\036\036\036\036\336?\000\000\000\000\000\000\000\000\323\322\322\322\322\322\342?\036\036\036\036\036\036\256?\036\036\036\036\036\036\276?\227\226\226\226\226\226\306?\036\036\036\036\036\036\316?\036\036\036\036\036\036\336?\036\036\036\036\036\036\316?\361\360\360\360\360\360\340?\323\322\322\322\322\322\322?\323\322\322\322\322\322\322?\036\036\036\036\036\036\256?\036\036\036\036\036\036\256?\036\036\036\036\036\036\276?\036\036\036\036\036\036\316?\265\264\264\264\264\264\344?\000\000\000\000\000\000\000\000\000\000\000\000\000\000\000\000\323\322\322\322\322\322\322?\036\036\036\036\036\036\256?\265\264\264\264\264\264\344?\036\036\036\036\036\036\256?\036\036\036\036\036\036\316?\000\000\000\000\000\000\000\000\000\000\000\000\000\000\000\000\036\036\036\036\036\036\256?\227\226\226\226\226\226\326?\323\322\322\322\322\322\322?\036\036\036\036\036\036\256?\036\036\036\036\036\036\316?\036\036\036\036\036\036\276?\361\360\360\360\360\360\340?\227\226\226\226\226\226\326?\323\322\322\322\322\322\342?\000\000\000\000\000\000\000\000\227\226\226\226\226\226\306?\323\322\322\322\322\322\322?\036\036\036\036\036\036\256?\036\036\036\036\036\036\336?\323\322\322\322\322\322\322?\036\036\036\036\036\036\276?\323\322\322\322\322\322\342?\036\036\036\036\036\036\276?\227\226\226\226\226\226\306?\036\036\036\036\036\036\276?\036\036\036\036\036\036\256?\036\036\036\036\036\036\316?\036\036\036\036\036\036\276?\323\322\322\322\322\322\322?\000\000\000\000\000\000\000\000\036\036\036\036\036\036\256?\323\322\322\322\322\322\342?\227\226\226\226\226\226\306?\036\036\036\036\036\036\316?\000\000\000\000\000\000\000\000\323\322\322\322\322\322\322?\036\036\036\036\036\036\256?\227\226\226\226\226\226\326?\000\000\000\000\000\000\000\000\323\322\322\322\322\322\322?\227\226\226\226\226\226\306?\227\226\226\226\226\226\306?\036\036\036\036\036\036\256?\000\000\000\000\000\000\000\000\323\322\322\322\322\322\322?xxxxxx\350?\036\036\036\036\036\036\336?\036\036\036\036\036\036\276?\323\322\322\322\322\322\342?\036\036\036\036\036\036\276?\323\322\322\322\322\322\322?\036\036\036\036\036\036\256?\036\036\036\036\036\036\256?\227\226\226\226\226\226\326?\036\036\036\036\036\036\276?\036\036\036\036\036\036\316?\227\226\226\226\226\226\306?\227\226\226\226\226\226\306?\227\226\226\226\226\226\326?\036\036\036\036\036\036\256?\227\226\226\226\226\226\346?\036\036\036\036\036\036\256?ZZZZZZ\332?\000\000\000\000\000\000\000\000\036\036\036\036\036\036\256?\036\036\036\036\036\036\256?\036\036\036\036\036\036\276?ZZZZZZ\332?\000\000\000\000\000\000\000\000\227\226\226\226\226\226\306?\323\322\322\322\322\322\342?ZZZZZZ\332?\227\226\226\226\226\226\306?ZZZZZZ\332?\265\264\264\264\264\264\344?\036\036\036\036\036\036\256?\036\036\036\036\036\036\256?\036\036\036\036\036\036\276?\036\036\036\036\036\036\276?\227\226\226\226\226\226\306?\000\000\000\000\000\000\360?\227\226\226\226\226\226\306?\036\036\036\036\036\036\316?\036\036\036\036\036\036\336?\227\226\226\226\226\226\326?\323\322\322\322\322\322\342?\323\322\322\322\322\322\322?\036\036\036\036\036\036\256?\227\226\226\226\226\226\326?\227\226\226\226\226\226\326?\036\036\036\036\036\036\256?\036\036\036\036\036\036\256?\361\360\360\360\360\360\340?\036\036\036\036\036\036\256?\361\360\360\360\360\360\340?\036\036\036\036\036\036\336?\036\036\036\036\036\036\256?\000\000\000\000\000\000\000\000\036\036\036\036\036\036\276?\227\226\226\226\226\226\326?\000\000\000\000\000\000\000\000\227\226\226\226\226\226\326?\036\036\036\036\036\036\256?ZZZZZZ\332?\323\322\322\322\322\322\322?\227\226\226\226\226\226\326?\036\036\036\036\036\036\276?\036\036\036\036\036\036\316?\227\226\226\226\226\226\326?\036\036\036\036\036\036\276?\227\226\226\226\226\226\306?\000\000\000\000\000\000\000\000\036\036\036\036\036\036\276?\036\036\036\036\036\036\256?\227\226\226\226\226\226\306?\036\036\036\036\036\036\316?\036\036\036\036\036\036\336?\036\036\036\036\036\036\316?\036\036\036\036\036\036\316?\036\036\036\036\036\036\256?\323\322\322\322\322\322\322?\227\226\226\226\226\226\306?ZZZZZZ\332?\000\000\000\000\000\000\000\000\323\322\322\322\322\322\322?\000\000\000\000\000\000\000\000\000\000\000\000\000\000\000\000\036\036\036\036\036\036\256?\036\036\036\036\036\036\256?\036\036\036\036\036\036\276?ZZZZZZ\332?\323\322\322\322\322\322\322?\036\036\036\036\036\036\276?\227\226\226\226\226\226\306?\036\036\036\036\036\036\316?\000\000\000\000\000\000\000\000\036\036\036\036\036\036\256?\323\322\322\322\322\322\322?\323\322\322\322\322\322\322?\323\322\322\322\322\322\322?\227\226\226\226\226\226\326?\036\036\036\036\036\036\276?\036\036\036\036\036\036\256?ZZZZZZ\352?\323\322\322\322\322\322\322?\036\036\036\036\036\036\276?\036\036\036\036\036\036\256?ZZZZZZ\332?ZZZZZZ\332?\227\226\226\226\226\226\326?\036\036\036\036\036\036\276?\036\036\036\036\036\036\256?\036\036\036\036\036\036\276?\227\226\226\226\226\226\306?\036\036\036\036\036\036\256?\323\322\322\322\322\322\342?\000\000\000\000\000\000\000\000\227\226\226\226\226\226\306?\323\322\322\322\322\322\322?\323\322\322\322\322\322\342?\036\036\036\036\036\036\276?\036\036\036\036\036\036\256?\036\036\036\036\036\036\276?\227\226\226\226\226\226\326?\036\036\036\036\036\036\316?ZZZZZZ\332?\000\000\000\000\000\000\000\000\036\036\036\036\036\036\336?\036\036\036\036\036\036\316?\036\036\036\036\036\036\256?\036\036\036\036\036\036\276?\036\036\036\036\036\036\256?\036\036\036\036\036\036\336?\036\036\036\036\036\036\256?\227\226\226\226\226\226\306?\361\360\360\360\360\360\340?\036\036\036\036\036\036\256?\000\000\000\000\000\000\000\000\036\036\036\036\036\036\316?\227\226\226\226\226\226\306?\227\226\226\226\226\226\326?\036\036\036\036\036\036\256?\036\036\036\036\036\036\256?\227\226\226\226\226\226\306?\323\322\322\322\322\322\322?\036\036\036\036\036\036\316?\000\000\000\000\000\000\000\000\000\000\000\000\000\000\000\000\227\226\226\226\226\226\346?\000\000\000\000\000\000\000\000\036\036\036\036\036\036\316?\227\226\226\226\226\226\326?\036\036\036\036\036\036\276?\036\036\036\036\036\036\336?\227\226\226\226\226\226\306?\361\360\360\360\360\360\340?\036\036\036\036\036\036\316?ZZZZZZ\332?\361\360\360\360\360\360\340?\036\036\036\036\036\036\256?\036\036\036\036\036\036\256?\036\036\036\036\036\036\276?\323\322\322\322\322\322\322?\000\000\000\000\000\000\000\000\036\036\036\036\036\036\256?\036\036\036\036\036\036\316?\361\360\360\360\360\360\340?\036\036\036\036\036\036\256?\000\000\000\000\000\000\000\000\036\036\036\036\036\036\276?\323\322\322\322\322\322\342?\036\036\036\036\036\036\336?\361\360\360\360\360\360\340?\000\000\000\000\000\000\000\000\227\226\226\226\226\226\326?\265\264\264\264\264\264\344?\227\226\226\226\226\226\306?\036\036\036\036\036\036\276?\323\322\322\322\322\322\322?\036\036\036\036\036\036\256?\323\322\322\322\322\322\342?\000\000\000\000\000\000\000\000\000\000\000\000\000\000\000\000"
      }
    }
  }
}
node {
  name: "normalize_element/component_7"
  op: "Const"
  device: "/device:CPU:0"
  attr {
    key: "_output_shapes"
    value {
      list {
        shape {
          dim {
            size: 537
          }
        }
      }
    }
  }
  attr {
    key: "dtype"
    value {
      type: DT_DOUBLE
    }
  }
  attr {
    key: "value"
    value {
      tensor {
        dtype: DT_DOUBLE
        tensor_shape {
          dim {
            size: 537
          }
        }
